unsigned char model_tflite[] = {
  0x1c, 0x00, 0x00, 0x00, 0x54, 0x46, 0x4c, 0x33, 0x14, 0x00, 0x20, 0x00,
  0x1c, 0x00, 0x18, 0x00, 0x14, 0x00, 0x10, 0x00, 0x0c, 0x00, 0x00, 0x00,
  0x08, 0x00, 0x04, 0x00, 0x14, 0x00, 0x00, 0x00, 0x1c, 0x00, 0x00, 0x00,
  0x98, 0x00, 0x00, 0x00, 0xf0, 0x00, 0x00, 0x00, 0xf8, 0x0e, 0x00, 0x00,
  0x08, 0x0f, 0x00, 0x00, 0x6c, 0x13, 0x00, 0x00, 0x03, 0x00, 0x00, 0x00,
  0x01, 0x00, 0x00, 0x00, 0x10, 0x00, 0x00, 0x00, 0x00, 0x00, 0x0a, 0x00,
  0x10, 0x00, 0x0c, 0x00, 0x08, 0x00, 0x04, 0x00, 0x0a, 0x00, 0x00, 0x00,
  0x0c, 0x00, 0x00, 0x00, 0x1c, 0x00, 0x00, 0x00, 0x3c, 0x00, 0x00, 0x00,
  0x0f, 0x00, 0x00, 0x00, 0x73, 0x65, 0x72, 0x76, 0x69, 0x6e, 0x67, 0x5f,
  0x64, 0x65, 0x66, 0x61, 0x75, 0x6c, 0x74, 0x00, 0x01, 0x00, 0x00, 0x00,
  0x04, 0x00, 0x00, 0x00, 0x90, 0xff, 0xff, 0xff, 0x07, 0x00, 0x00, 0x00,
  0x04, 0x00, 0x00, 0x00, 0x08, 0x00, 0x00, 0x00, 0x6f, 0x75, 0x74, 0x70,
  0x75, 0x74, 0x5f, 0x30, 0x00, 0x00, 0x00, 0x00, 0x01, 0x00, 0x00, 0x00,
  0x04, 0x00, 0x00, 0x00, 0xf2, 0xf0, 0xff, 0xff, 0x04, 0x00, 0x00, 0x00,
  0x0c, 0x00, 0x00, 0x00, 0x6b, 0x65, 0x72, 0x61, 0x73, 0x5f, 0x74, 0x65,
  0x6e, 0x73, 0x6f, 0x72, 0x00, 0x00, 0x00, 0x00, 0x02, 0x00, 0x00, 0x00,
  0x34, 0x00, 0x00, 0x00, 0x04, 0x00, 0x00, 0x00, 0xdc, 0xff, 0xff, 0xff,
  0x0a, 0x00, 0x00, 0x00, 0x04, 0x00, 0x00, 0x00, 0x13, 0x00, 0x00, 0x00,
  0x43, 0x4f, 0x4e, 0x56, 0x45, 0x52, 0x53, 0x49, 0x4f, 0x4e, 0x5f, 0x4d,
  0x45, 0x54, 0x41, 0x44, 0x41, 0x54, 0x41, 0x00, 0x08, 0x00, 0x0c, 0x00,
  0x08, 0x00, 0x04, 0x00, 0x08, 0x00, 0x00, 0x00, 0x09, 0x00, 0x00, 0x00,
  0x04, 0x00, 0x00, 0x00, 0x13, 0x00, 0x00, 0x00, 0x6d, 0x69, 0x6e, 0x5f,
  0x72, 0x75, 0x6e, 0x74, 0x69, 0x6d, 0x65, 0x5f, 0x76, 0x65, 0x72, 0x73,
  0x69, 0x6f, 0x6e, 0x00, 0x0b, 0x00, 0x00, 0x00, 0x04, 0x0e, 0x00, 0x00,
  0xfc, 0x0d, 0x00, 0x00, 0xec, 0x09, 0x00, 0x00, 0xcc, 0x09, 0x00, 0x00,
  0xbc, 0x08, 0x00, 0x00, 0xac, 0x00, 0x00, 0x00, 0xa4, 0x00, 0x00, 0x00,
  0x9c, 0x00, 0x00, 0x00, 0x94, 0x00, 0x00, 0x00, 0x74, 0x00, 0x00, 0x00,
  0x04, 0x00, 0x00, 0x00, 0x9a, 0xf1, 0xff, 0xff, 0x04, 0x00, 0x00, 0x00,
  0x60, 0x00, 0x00, 0x00, 0x10, 0x00, 0x00, 0x00, 0x00, 0x00, 0x00, 0x00,
  0x08, 0x00, 0x0e, 0x00, 0x08, 0x00, 0x04, 0x00, 0x08, 0x00, 0x00, 0x00,
  0x10, 0x00, 0x00, 0x00, 0x24, 0x00, 0x00, 0x00, 0x00, 0x00, 0x06, 0x00,
  0x08, 0x00, 0x04, 0x00, 0x06, 0x00, 0x00, 0x00, 0x04, 0x00, 0x00, 0x00,
  0x00, 0x00, 0x00, 0x00, 0x0c, 0x00, 0x18, 0x00, 0x14, 0x00, 0x10, 0x00,
  0x0c, 0x00, 0x04, 0x00, 0x0c, 0x00, 0x00, 0x00, 0xaa, 0xbf, 0x10, 0x20,
  0x70, 0x32, 0xcb, 0xfa, 0x02, 0x00, 0x00, 0x00, 0x02, 0x00, 0x00, 0x00,
  0x04, 0x00, 0x00, 0x00, 0x06, 0x00, 0x00, 0x00, 0x32, 0x2e, 0x31, 0x39,
  0x2e, 0x30, 0x00, 0x00, 0x06, 0xf2, 0xff, 0xff, 0x04, 0x00, 0x00, 0x00,
  0x10, 0x00, 0x00, 0x00, 0x31, 0x2e, 0x35, 0x2e, 0x30, 0x00, 0x00, 0x00,
  0x00, 0x00, 0x00, 0x00, 0x00, 0x00, 0x00, 0x00, 0x68, 0xee, 0xff, 0xff,
  0x6c, 0xee, 0xff, 0xff, 0x70, 0xee, 0xff, 0xff, 0x2e, 0xf2, 0xff, 0xff,
  0x04, 0x00, 0x00, 0x00, 0x00, 0x08, 0x00, 0x00, 0x73, 0xbe, 0x1f, 0x3e,
  0x66, 0xa6, 0xba, 0x3e, 0x76, 0x00, 0xa8, 0x3e, 0xda, 0x54, 0xd2, 0x3d,
  0x06, 0x13, 0x97, 0x3d, 0x65, 0x54, 0xd0, 0x3d, 0x51, 0x7d, 0xcb, 0xbb,
  0xc2, 0x6a, 0x8d, 0x3e, 0xa6, 0x65, 0xa4, 0x3e, 0x47, 0x72, 0x63, 0x3e,
  0x48, 0xf3, 0x07, 0x3f, 0xe5, 0xf1, 0x0b, 0xbb, 0xa3, 0x22, 0x86, 0x3d,
  0xd6, 0x7a, 0x9f, 0xbe, 0xd8, 0xac, 0xd2, 0xbd, 0x0a, 0x8c, 0xa5, 0x3e,
  0x01, 0x7f, 0xa5, 0xbe, 0x6d, 0x00, 0x96, 0xbe, 0xf8, 0xf6, 0x9c, 0xbe,
  0xa1, 0xb6, 0x7a, 0x3d, 0xb6, 0x2c, 0x6f, 0xbe, 0x19, 0xc8, 0xd3, 0xbd,
  0xd9, 0x40, 0xb4, 0xbe, 0x13, 0xc3, 0xbb, 0xbe, 0x34, 0xfe, 0x98, 0xbe,
  0xdb, 0xa8, 0x33, 0xbe, 0x3d, 0x78, 0x60, 0xbd, 0xc4, 0x27, 0x9e, 0xbe,
  0xfd, 0x9b, 0x86, 0x3c, 0xa8, 0x4d, 0xbe, 0xbc, 0xc8, 0xbd, 0xe1, 0x3b,
  0x14, 0x27, 0x7a, 0xbd, 0x0d, 0xeb, 0xba, 0xbe, 0xbf, 0xf0, 0x9d, 0x3e,
  0xef, 0x16, 0x06, 0xbf, 0x49, 0xca, 0xba, 0x3e, 0x71, 0x53, 0x18, 0xbe,
  0xb2, 0x25, 0xc0, 0xbd, 0x02, 0x0c, 0x1d, 0x3e, 0x29, 0x06, 0xa1, 0x3e,
  0x0f, 0xe2, 0x79, 0x3e, 0x4b, 0xec, 0xd7, 0xbe, 0x18, 0x77, 0x41, 0x3e,
  0xd5, 0xda, 0xcb, 0xbd, 0x27, 0x81, 0x8c, 0x3e, 0x48, 0x3e, 0x8e, 0xbd,
  0xf3, 0x48, 0xc2, 0xbc, 0xcd, 0x36, 0xe0, 0xbe, 0x18, 0x28, 0xd1, 0x3c,
  0xf7, 0xba, 0x83, 0x3e, 0x66, 0xd4, 0x57, 0x3e, 0x0e, 0x28, 0x75, 0x3e,
  0xb5, 0x03, 0xf9, 0x3d, 0xe2, 0x15, 0x3b, 0x3e, 0x21, 0x4f, 0x54, 0x3e,
  0x48, 0x40, 0x55, 0x3e, 0xb7, 0x1d, 0x6c, 0x3e, 0x19, 0x43, 0x74, 0xbe,
  0x4c, 0x9b, 0x11, 0xbe, 0x55, 0x7b, 0xfa, 0x3d, 0xa2, 0x23, 0xba, 0x3d,
  0x53, 0xe1, 0x92, 0x3b, 0xbf, 0xff, 0x65, 0x3e, 0x5c, 0xc4, 0xad, 0xbe,
  0x52, 0x5a, 0xb5, 0x3d, 0xf1, 0x70, 0x6b, 0x3d, 0x53, 0x98, 0x05, 0x3f,
  0x09, 0x4c, 0x29, 0x3e, 0x14, 0x13, 0x32, 0x3e, 0x35, 0xb5, 0x39, 0xbe,
  0x0d, 0x1a, 0x32, 0xbd, 0x79, 0x92, 0x29, 0x3e, 0x51, 0x74, 0xc1, 0x3d,
  0x1c, 0xa6, 0x67, 0xbe, 0x28, 0x56, 0xa5, 0xbe, 0x44, 0xb2, 0x7f, 0xbe,
  0xb6, 0xc8, 0xcd, 0xbd, 0x38, 0x12, 0x3e, 0xbe, 0x0e, 0x7f, 0xa6, 0xbe,
  0x26, 0xca, 0xc4, 0x3d, 0x78, 0xb5, 0xb6, 0xbe, 0x7f, 0x10, 0x76, 0xbe,
  0x58, 0xfe, 0xab, 0xbe, 0x3d, 0xef, 0x10, 0xbe, 0x02, 0xb5, 0xcb, 0x3c,
  0x5c, 0x34, 0xe2, 0x3d, 0x5f, 0x13, 0x29, 0x3e, 0x59, 0xea, 0x66, 0x3d,
  0xbd, 0xd8, 0x59, 0x3e, 0x11, 0x22, 0x8c, 0x3e, 0x42, 0xa5, 0x87, 0x3e,
  0x12, 0xc1, 0x1c, 0x3e, 0x50, 0xb3, 0x9a, 0x3e, 0x1a, 0xde, 0x11, 0x3e,
  0xcf, 0x11, 0x8f, 0x3e, 0x62, 0x05, 0x8e, 0xbd, 0x73, 0x7d, 0x3f, 0x3e,
  0x80, 0x99, 0xf0, 0xbe, 0x0d, 0xae, 0x4b, 0x3e, 0x66, 0x8c, 0xba, 0xbe,
  0x16, 0xe6, 0x43, 0x3e, 0x8a, 0x91, 0xe0, 0x3c, 0x68, 0x9c, 0x52, 0x3d,
  0x27, 0x08, 0xd1, 0xbe, 0xe9, 0x0c, 0x88, 0x3e, 0x9e, 0xd7, 0xef, 0x3c,
  0x5a, 0x77, 0x96, 0x3e, 0x56, 0x3d, 0xd3, 0x3d, 0x0e, 0x9d, 0xd9, 0xbc,
  0xf0, 0x7b, 0x45, 0xbb, 0x71, 0xec, 0xce, 0x3d, 0x59, 0x31, 0x47, 0x3e,
  0x94, 0x12, 0x52, 0xbd, 0x9d, 0x6e, 0xd3, 0x3d, 0x0a, 0xca, 0xa5, 0xbe,
  0xe8, 0xae, 0x92, 0x3e, 0x18, 0x75, 0x05, 0xbc, 0x4f, 0x30, 0x0f, 0x3e,
  0x26, 0x80, 0x1d, 0x3e, 0x82, 0x8c, 0xaf, 0x3e, 0x82, 0x03, 0x44, 0x3e,
  0xb5, 0xd4, 0x81, 0xbe, 0x0a, 0x1a, 0x09, 0xbd, 0x9f, 0x2f, 0xf3, 0xbd,
  0x2a, 0xbd, 0xb9, 0x3d, 0xe4, 0x9d, 0x5d, 0x3e, 0xe0, 0xea, 0x0a, 0x3e,
  0xcd, 0xac, 0xa6, 0xbe, 0xe0, 0x57, 0x26, 0x3e, 0x58, 0x1b, 0x70, 0x3c,
  0x29, 0x38, 0x05, 0x3f, 0xc1, 0x2b, 0x2d, 0xbc, 0xbb, 0x89, 0x7a, 0x3c,
  0xd5, 0xca, 0x90, 0x3d, 0x3c, 0xfc, 0x1f, 0x3e, 0x75, 0x9b, 0x36, 0x3d,
  0x5a, 0x97, 0x19, 0x3e, 0x41, 0xb5, 0x95, 0x3e, 0x82, 0x4f, 0x31, 0xbe,
  0xe3, 0x76, 0xda, 0x3e, 0xd1, 0xd8, 0x85, 0xbc, 0x1a, 0x58, 0x6e, 0x3e,
  0x18, 0xb5, 0x93, 0x3c, 0x00, 0x25, 0xde, 0x3e, 0xc2, 0x1c, 0x8d, 0xbe,
  0xf3, 0xee, 0x68, 0x3e, 0x3a, 0xd5, 0x37, 0xbd, 0x95, 0x01, 0xa3, 0xbe,
  0x59, 0xff, 0x98, 0xbe, 0xcd, 0x79, 0x45, 0x3c, 0x9f, 0x94, 0x28, 0xbe,
  0x8c, 0x2b, 0xe7, 0xbd, 0xc0, 0x3e, 0xc2, 0xbe, 0x97, 0xda, 0xae, 0xbe,
  0xb8, 0x4d, 0x97, 0xbe, 0x51, 0x73, 0x93, 0xbe, 0xa9, 0x0b, 0x14, 0xbe,
  0xb4, 0xbf, 0xb4, 0xbd, 0x9d, 0x72, 0xf7, 0x3d, 0xcf, 0xa2, 0xa1, 0xbe,
  0xee, 0xb7, 0xcf, 0xbd, 0xb2, 0x43, 0x06, 0xbe, 0x6d, 0x1c, 0x41, 0xbe,
  0x73, 0x7d, 0x90, 0x3c, 0xd6, 0x32, 0x13, 0xbe, 0x94, 0x13, 0xc7, 0xbd,
  0xb6, 0xa5, 0xad, 0x3e, 0xdb, 0xe5, 0x5d, 0xbd, 0x28, 0x6b, 0xe0, 0x3e,
  0x6e, 0x00, 0xdb, 0xbe, 0xee, 0xb3, 0x0c, 0x3f, 0x66, 0x23, 0x6d, 0x3d,
  0x79, 0xf3, 0x18, 0x3f, 0x88, 0xea, 0x28, 0x3e, 0xd7, 0xb0, 0xff, 0xbd,
  0x4c, 0x0a, 0x9d, 0xbe, 0x64, 0x04, 0xc7, 0xbe, 0x2a, 0x15, 0xc9, 0xbd,
  0x0f, 0xe4, 0xa2, 0xbe, 0x1c, 0xf1, 0x92, 0xbe, 0xaa, 0x9f, 0x33, 0xbe,
  0x83, 0x96, 0xa8, 0xbe, 0xa3, 0x2b, 0x61, 0xbe, 0x14, 0xee, 0x38, 0xbc,
  0xff, 0x2a, 0x84, 0x3e, 0x09, 0x95, 0x70, 0x3e, 0x6e, 0x20, 0x9a, 0x3d,
  0x30, 0x7a, 0x75, 0x3e, 0x80, 0x7f, 0x21, 0x3e, 0x53, 0xf6, 0xf2, 0xbd,
  0xc6, 0x99, 0xc5, 0xbd, 0xa4, 0xb8, 0xc4, 0x3e, 0x56, 0xa6, 0x84, 0x3d,
  0xaa, 0x17, 0x93, 0x3e, 0xea, 0xe0, 0xaa, 0xbe, 0x50, 0xe2, 0x9e, 0x3d,
  0xdf, 0xdf, 0xba, 0xbe, 0x29, 0xe1, 0xdb, 0x3e, 0x89, 0xed, 0xe6, 0x3e,
  0x01, 0x2f, 0xc5, 0x3b, 0x45, 0xad, 0x88, 0xbe, 0xc6, 0x08, 0xea, 0xbd,
  0x81, 0x21, 0xce, 0x3c, 0x0f, 0xc9, 0x67, 0xbc, 0xc3, 0x68, 0x9b, 0xbe,
  0xd2, 0x79, 0x35, 0x3e, 0x64, 0x88, 0x0d, 0xbc, 0x6a, 0xe3, 0x23, 0xbd,
  0x71, 0x0a, 0x32, 0xbe, 0x67, 0xc2, 0x85, 0xbd, 0x0e, 0x99, 0x85, 0xbe,
  0x06, 0x31, 0xa8, 0x3e, 0x8c, 0x07, 0x5f, 0xbe, 0xb5, 0xe7, 0xdb, 0xbc,
  0xa5, 0x51, 0x46, 0x3e, 0x39, 0x84, 0x4a, 0x3e, 0x98, 0xca, 0xc7, 0xbe,
  0xb7, 0xeb, 0xee, 0x3d, 0x9d, 0x41, 0x4c, 0xbe, 0xc4, 0x99, 0xb7, 0xbe,
  0xb2, 0x8c, 0xa2, 0xbe, 0x28, 0x4d, 0x0e, 0x37, 0x08, 0xd7, 0x38, 0x3d,
  0x71, 0x89, 0x21, 0x3e, 0x67, 0x02, 0xf6, 0x3e, 0x2a, 0x41, 0xcc, 0xbe,
  0x82, 0xcd, 0x37, 0x3d, 0xb8, 0x50, 0xe5, 0xbe, 0xa9, 0x94, 0xe2, 0x3e,
  0xb0, 0xa0, 0xf3, 0x3e, 0xfc, 0x06, 0xea, 0xbe, 0x37, 0xf8, 0x67, 0xbe,
  0xe5, 0x10, 0x4e, 0x3e, 0xf2, 0x19, 0xd4, 0x3e, 0xab, 0x3d, 0x7b, 0x3e,
  0x1a, 0x33, 0xda, 0x3e, 0xcb, 0xde, 0x88, 0x3e, 0x7c, 0xa8, 0xc5, 0x3d,
  0x45, 0x45, 0xaf, 0x3e, 0x0e, 0x6d, 0xd6, 0x3d, 0x63, 0x01, 0x98, 0xbe,
  0xd9, 0xe6, 0xa7, 0xbc, 0x7f, 0x29, 0xb1, 0x3d, 0x20, 0xc8, 0x57, 0x3e,
  0xc5, 0x42, 0x66, 0x3d, 0x98, 0x4d, 0x53, 0x3e, 0x76, 0x1f, 0x46, 0xbe,
  0xf6, 0xeb, 0x9f, 0xbd, 0xa5, 0x7d, 0xf2, 0xbd, 0x70, 0x27, 0x9a, 0xbe,
  0x66, 0x28, 0xa1, 0xbe, 0xa4, 0x31, 0xfe, 0xbd, 0xe2, 0x35, 0x26, 0xbe,
  0xe3, 0xb6, 0x96, 0xbe, 0xfc, 0xf9, 0x03, 0xbd, 0x5e, 0x51, 0x6c, 0xbe,
  0xa8, 0x3b, 0x4b, 0x3e, 0x33, 0xe4, 0x58, 0xbe, 0xb1, 0x4c, 0x95, 0x3e,
  0x1f, 0xdb, 0xa8, 0xbe, 0x89, 0xaa, 0xc7, 0x3e, 0x54, 0xe4, 0xfe, 0x3d,
  0xcd, 0xb2, 0xba, 0xbe, 0x6e, 0x8e, 0xf6, 0xbe, 0x35, 0x62, 0x69, 0x3e,
  0x9e, 0x65, 0x86, 0xbe, 0x66, 0x2b, 0x74, 0xbe, 0xd7, 0x16, 0x1d, 0x3d,
  0x26, 0xf3, 0x1d, 0xbe, 0x82, 0x30, 0x8f, 0x3e, 0x4a, 0x1a, 0x40, 0xbe,
  0x4c, 0x06, 0xd3, 0xbe, 0xdc, 0x44, 0xf6, 0xbe, 0xf2, 0xb6, 0xb2, 0x3e,
  0x94, 0x75, 0x4c, 0xbe, 0xcb, 0x35, 0x8e, 0x3e, 0x18, 0x37, 0xaf, 0xbe,
  0x0b, 0x30, 0xc2, 0x3e, 0xb6, 0xa2, 0xf3, 0xbd, 0xa1, 0x20, 0xb6, 0x3e,
  0x7d, 0x13, 0x15, 0x3f, 0x49, 0x74, 0xc7, 0xbe, 0xeb, 0x5b, 0xf8, 0x3e,
  0x90, 0x33, 0x43, 0xbe, 0xec, 0x35, 0x41, 0x3e, 0x49, 0xd0, 0x05, 0x3e,
  0x85, 0x1e, 0x0e, 0x3e, 0xc8, 0xc4, 0x38, 0xbe, 0x84, 0x8a, 0xa5, 0x3e,
  0x44, 0x5f, 0x14, 0xbe, 0xf2, 0xbe, 0x10, 0xbe, 0x15, 0x50, 0x55, 0x3d,
  0x6c, 0xf1, 0x3c, 0x3e, 0xf9, 0x9d, 0x96, 0xbd, 0x1e, 0x22, 0x7c, 0xbe,
  0xd4, 0x53, 0xaf, 0xbe, 0x05, 0xcf, 0x18, 0xbe, 0x8b, 0x20, 0xc3, 0x3e,
  0xb1, 0x24, 0x18, 0xbf, 0xae, 0xc6, 0xa3, 0x3e, 0xae, 0x56, 0x5b, 0xbe,
  0xc6, 0xe2, 0xa2, 0x3c, 0x30, 0xe6, 0x90, 0x3e, 0xad, 0x77, 0x62, 0x3e,
  0xe9, 0x30, 0x19, 0xbe, 0xf8, 0x06, 0x97, 0x3e, 0x78, 0xc7, 0x32, 0x3e,
  0xec, 0x94, 0xe1, 0x3e, 0x1a, 0x50, 0x28, 0xbe, 0x25, 0x6b, 0x19, 0x3e,
  0xda, 0x25, 0x34, 0x3e, 0x08, 0xd1, 0x26, 0x3e, 0x3a, 0x1f, 0x0e, 0xbe,
  0x3a, 0x1f, 0xcb, 0x3e, 0xa4, 0xf7, 0x90, 0xbe, 0x5a, 0x0d, 0xad, 0x3e,
  0x3a, 0xdd, 0x8e, 0xbe, 0x3c, 0x7a, 0xbe, 0x3b, 0xe1, 0xb2, 0x12, 0x3d,
  0x3c, 0x7a, 0xae, 0x3e, 0xe7, 0xd6, 0x81, 0x3e, 0x99, 0xa9, 0x2a, 0x3e,
  0x0d, 0x0c, 0xf1, 0x3e, 0x22, 0x5f, 0xc1, 0xbc, 0x02, 0x1d, 0x87, 0x3d,
  0x61, 0xcf, 0x7a, 0x3d, 0xf8, 0x9e, 0x18, 0x3c, 0x29, 0x9d, 0x94, 0x3c,
  0x1d, 0xa2, 0xb2, 0xbe, 0x11, 0xa6, 0xd8, 0xbd, 0x6c, 0x39, 0xbd, 0xbe,
  0x4a, 0x59, 0xc4, 0x3d, 0xcc, 0xde, 0x59, 0x3c, 0x6a, 0xe7, 0x47, 0xbe,
  0x83, 0x36, 0xca, 0xbd, 0xff, 0x8c, 0x8c, 0xbe, 0x27, 0x6e, 0xd5, 0xbe,
  0xf5, 0x75, 0x93, 0x3e, 0xc7, 0x36, 0xbd, 0xbe, 0x91, 0xa6, 0xb7, 0x3e,
  0xcf, 0x1a, 0x04, 0xbe, 0x52, 0xe9, 0xb8, 0xbd, 0xbe, 0xd4, 0xbb, 0x3e,
  0x9d, 0x92, 0x91, 0x3c, 0xcc, 0x30, 0x49, 0xbe, 0x1e, 0xc6, 0xd7, 0x3e,
  0x1f, 0x6b, 0x13, 0xbe, 0x89, 0xc9, 0x10, 0x3e, 0x8d, 0xda, 0x95, 0xbd,
  0x5e, 0xe2, 0xda, 0x3e, 0xe0, 0xb1, 0x19, 0x3d, 0x1a, 0xe8, 0x92, 0x3e,
  0x5e, 0x1e, 0xa2, 0x3e, 0x7e, 0x01, 0x91, 0xbe, 0xa9, 0x3b, 0x14, 0x3f,
  0x1c, 0x32, 0xb0, 0xbe, 0xec, 0x7f, 0x9d, 0x3e, 0xf2, 0x78, 0x4e, 0x3e,
  0x07, 0xba, 0x6c, 0x3e, 0xd5, 0x11, 0x8e, 0x3d, 0x27, 0xea, 0x81, 0x3e,
  0x88, 0xb7, 0xab, 0x3e, 0xb0, 0xac, 0x8c, 0xbd, 0xc3, 0x6a, 0xac, 0x3e,
  0xb7, 0x35, 0xf9, 0x3c, 0xc2, 0x48, 0xbc, 0x3d, 0x1d, 0xc4, 0x7d, 0x3e,
  0x72, 0xaf, 0xf1, 0x3e, 0x9c, 0xfe, 0x5e, 0xbe, 0x88, 0x87, 0xae, 0x3d,
  0x6e, 0xa5, 0x1b, 0xbe, 0x79, 0x2d, 0x83, 0xbd, 0x10, 0x9a, 0xfa, 0x3d,
  0x99, 0x75, 0x26, 0x3e, 0x63, 0xc7, 0x54, 0x3e, 0x73, 0xbb, 0x4c, 0x3e,
  0x86, 0x07, 0xac, 0x3e, 0x55, 0xf4, 0x44, 0x3e, 0x02, 0xb0, 0x20, 0x3f,
  0xec, 0x9d, 0x18, 0x3d, 0x8f, 0x96, 0x5e, 0x3e, 0xa0, 0x0a, 0x60, 0xbe,
  0x93, 0x86, 0x32, 0xbe, 0xb9, 0xe3, 0x7e, 0x3d, 0xe2, 0xfd, 0x98, 0x3e,
  0x7d, 0x38, 0xcd, 0xbe, 0x35, 0x06, 0x24, 0x3e, 0xf6, 0x3f, 0xd0, 0xbe,
  0xed, 0xe7, 0xe0, 0x3e, 0x8d, 0x09, 0xd8, 0x3d, 0x85, 0x21, 0xda, 0xbe,
  0x24, 0x06, 0xc9, 0xbe, 0x36, 0xa7, 0x79, 0xbe, 0xa2, 0x39, 0x8e, 0xbe,
  0x5a, 0x73, 0x51, 0xbe, 0xd0, 0x6c, 0x5c, 0x3d, 0x8d, 0xc6, 0xb0, 0xbc,
  0xd9, 0x67, 0x70, 0xbe, 0x0a, 0xbd, 0xf7, 0xbd, 0x1a, 0xb2, 0x9a, 0x3d,
  0xb8, 0x5c, 0x07, 0xbd, 0x92, 0x41, 0x27, 0x3d, 0x0d, 0x65, 0x92, 0xbc,
  0xe4, 0x69, 0x6d, 0xbe, 0x86, 0x0c, 0xf5, 0xbe, 0x21, 0x03, 0x0b, 0xbe,
  0xae, 0x07, 0x6c, 0x3d, 0x08, 0x94, 0x3a, 0xbe, 0xca, 0xa4, 0x88, 0x3b,
  0x84, 0x32, 0x34, 0xbe, 0xc7, 0xcc, 0x99, 0xbe, 0xc5, 0x8e, 0x33, 0x3d,
  0x3b, 0xb1, 0xb5, 0xbe, 0x2f, 0xbe, 0x14, 0x3d, 0x11, 0x16, 0xb2, 0xbe,
  0x96, 0x26, 0x45, 0x3e, 0xf1, 0x68, 0xf4, 0x3d, 0x36, 0x26, 0xcb, 0xbe,
  0xe6, 0x25, 0x85, 0x3e, 0x1b, 0xdd, 0x78, 0xbe, 0x20, 0x5e, 0x3c, 0x3d,
  0x5d, 0x99, 0x83, 0x3e, 0x07, 0x08, 0x66, 0xbe, 0x5b, 0x5d, 0x86, 0xbe,
  0xb1, 0x37, 0x0f, 0x3f, 0xb8, 0x78, 0x7c, 0xbe, 0x82, 0xa1, 0xc1, 0x3e,
  0xa5, 0x6d, 0xe0, 0xbe, 0xaf, 0x72, 0xea, 0x3e, 0x36, 0x27, 0x0a, 0x3e,
  0x9b, 0xa3, 0x50, 0x3e, 0x5e, 0x5c, 0x28, 0xbe, 0x4c, 0x85, 0x75, 0x3f,
  0x24, 0xac, 0xca, 0xbe, 0x12, 0x18, 0x2e, 0x3f, 0xe0, 0x1f, 0x4c, 0xbe,
  0x3d, 0xd1, 0xfc, 0x3e, 0xa0, 0xec, 0x62, 0x3e, 0x2a, 0xe0, 0x82, 0xbe,
  0xdd, 0x4c, 0x30, 0xbd, 0x7d, 0x55, 0x0d, 0xbc, 0xa3, 0x1c, 0x69, 0xbe,
  0xca, 0xb4, 0x14, 0xbe, 0x35, 0x67, 0x0a, 0x3e, 0x00, 0x0d, 0x81, 0x3c,
  0xef, 0x9a, 0xa9, 0x3d, 0x3e, 0xc4, 0x75, 0x3d, 0xe6, 0xdf, 0xe4, 0xbc,
  0x7d, 0xed, 0xf5, 0xbe, 0xe4, 0xf9, 0x9d, 0x3d, 0x07, 0x91, 0xa9, 0xbe,
  0x6d, 0x12, 0xdb, 0x3e, 0x23, 0x0f, 0xaf, 0xbe, 0xd3, 0x32, 0x86, 0x3d,
  0x21, 0xa3, 0xa7, 0x3d, 0x01, 0xe3, 0xc5, 0x3e, 0xaa, 0xa1, 0x06, 0x3f,
  0x34, 0x14, 0x44, 0x3e, 0xed, 0x61, 0x0d, 0x3f, 0xec, 0xa0, 0xb5, 0xbd,
  0x11, 0x02, 0xb4, 0x3e, 0xe4, 0x3f, 0x92, 0x3c, 0x17, 0xb5, 0x51, 0xbe,
  0xc2, 0x74, 0x0e, 0xbe, 0xc1, 0x67, 0x87, 0xbd, 0xad, 0xfc, 0xa5, 0x3d,
  0xe8, 0x72, 0xdd, 0x3e, 0x9a, 0xee, 0x97, 0x3e, 0x51, 0x99, 0xc1, 0xbd,
  0x7d, 0x19, 0x39, 0x3c, 0x42, 0xdf, 0xcf, 0x3d, 0xe4, 0xd0, 0x4a, 0xbe,
  0x92, 0xf6, 0x7a, 0xbe, 0xf6, 0x00, 0xb7, 0x3b, 0x60, 0x33, 0x13, 0xbf,
  0x42, 0x9e, 0xbd, 0x3e, 0x27, 0x26, 0x80, 0xbe, 0xe7, 0xdc, 0x21, 0x3d,
  0xfd, 0xf8, 0xcb, 0x3e, 0x31, 0x8b, 0x68, 0x3e, 0xee, 0xf4, 0x27, 0x3e,
  0xea, 0x83, 0x87, 0xbe, 0xc6, 0x48, 0x17, 0x3d, 0x99, 0x73, 0x30, 0xbe,
  0xd7, 0x6c, 0x76, 0x3e, 0x12, 0x89, 0x16, 0xbe, 0x7b, 0xf1, 0x00, 0x3e,
  0xff, 0xa2, 0xb3, 0xbe, 0xc4, 0x9b, 0xef, 0x3e, 0x85, 0x22, 0x4e, 0x3d,
  0x7b, 0x89, 0x04, 0x3f, 0x80, 0x6f, 0x88, 0xbe, 0x87, 0xa1, 0xf0, 0x3e,
  0x94, 0xa5, 0xb8, 0xbd, 0x0c, 0x55, 0x0a, 0x3e, 0xcb, 0x7c, 0x08, 0xbc,
  0x93, 0x4c, 0x06, 0x3f, 0x37, 0xdb, 0x6b, 0xbd, 0x80, 0x9a, 0x01, 0x3f,
  0xeb, 0x59, 0xa9, 0x3d, 0x5f, 0x08, 0xcd, 0x3e, 0xc6, 0xc3, 0x10, 0xbe,
  0x1e, 0xd9, 0x9d, 0xbe, 0x97, 0x83, 0x76, 0xbd, 0x2d, 0xbb, 0xab, 0xbe,
  0x5b, 0x50, 0x08, 0x3d, 0x1c, 0x33, 0x20, 0xbf, 0xa2, 0x38, 0xf8, 0x3e,
  0x44, 0xc6, 0xc3, 0xbe, 0xc9, 0x72, 0xca, 0x3e, 0x38, 0x93, 0x92, 0x3e,
  0x02, 0x9a, 0xa4, 0x3e, 0x3a, 0xfa, 0xff, 0xff, 0x04, 0x00, 0x00, 0x00,
  0x00, 0x01, 0x00, 0x00, 0x08, 0xad, 0xdc, 0xbc, 0x97, 0xab, 0xf9, 0xbd,
  0x51, 0x5a, 0x1e, 0x3e, 0x8a, 0xa2, 0xc5, 0x3d, 0xe0, 0x3a, 0x3b, 0x3d,
  0x95, 0xaa, 0x95, 0x3e, 0x41, 0x6e, 0xfc, 0x3c, 0xc0, 0xf2, 0xe4, 0x3d,
  0xde, 0x56, 0xce, 0xbd, 0x8f, 0x4c, 0xe4, 0x3c, 0xa2, 0x09, 0x08, 0xbd,
  0x29, 0x65, 0x2e, 0xbd, 0x3e, 0x05, 0x5c, 0x3e, 0x15, 0x96, 0x1a, 0xbe,
  0x7f, 0xcf, 0xae, 0x3d, 0x1c, 0x91, 0x3f, 0x3e, 0x6c, 0x06, 0x1b, 0xbe,
  0x39, 0x2b, 0x20, 0x3e, 0xe1, 0x4e, 0x63, 0x3d, 0x75, 0x4d, 0xe7, 0x3d,
  0x4e, 0xbf, 0xbc, 0xbd, 0x49, 0xea, 0x4b, 0x3e, 0x62, 0x6a, 0x4a, 0xbb,
  0xea, 0xc4, 0x04, 0x3c, 0xa4, 0x52, 0x0a, 0x3e, 0x3b, 0xe6, 0xad, 0x3a,
  0xbd, 0xf2, 0x84, 0x3d, 0xd4, 0x59, 0x79, 0x3d, 0x6a, 0x41, 0x7c, 0x3e,
  0x16, 0xe5, 0x7c, 0xbc, 0x91, 0x0d, 0x72, 0xbd, 0x62, 0x09, 0xce, 0x3d,
  0x0d, 0xb7, 0xbf, 0x3e, 0x9c, 0x6e, 0xd3, 0x3d, 0xf4, 0x07, 0x04, 0x3e,
  0xe0, 0x71, 0x4c, 0x3e, 0xb7, 0xd7, 0x17, 0x3e, 0x2b, 0x91, 0xd5, 0x3d,
  0x29, 0x28, 0x23, 0x3e, 0x97, 0x7b, 0xc4, 0x3d, 0xc1, 0x1b, 0x96, 0xbd,
  0x50, 0x22, 0xfa, 0x3b, 0x3e, 0x97, 0x3e, 0x3d, 0xaf, 0x79, 0x3d, 0x3e,
  0x74, 0x5a, 0x32, 0x3d, 0x0b, 0x51, 0x33, 0x3e, 0xbb, 0x3d, 0x03, 0x3d,
  0x26, 0x84, 0xe8, 0xbd, 0x2c, 0x61, 0xcc, 0x3e, 0x26, 0xab, 0x98, 0x3d,
  0x75, 0x25, 0x91, 0x3d, 0xb2, 0x0d, 0xe5, 0x3d, 0x71, 0x69, 0x6e, 0x3e,
  0xf2, 0xfe, 0x1c, 0x3e, 0x92, 0xa4, 0xc2, 0x3d, 0x1d, 0xb5, 0x82, 0xbd,
  0x29, 0x98, 0x43, 0x3e, 0x3e, 0x9d, 0x84, 0xbd, 0x18, 0xc5, 0x84, 0x3b,
  0xd6, 0x54, 0x13, 0x3e, 0x36, 0x5c, 0x28, 0x3e, 0xd7, 0x72, 0x82, 0x3c,
  0x6a, 0xbd, 0x3e, 0xbd, 0x1f, 0x03, 0xf9, 0x3d, 0x46, 0xfb, 0xff, 0xff,
  0x04, 0x00, 0x00, 0x00, 0x10, 0x00, 0x00, 0x00, 0xe8, 0x9a, 0x02, 0xbd,
  0x31, 0x01, 0x00, 0x3e, 0x9b, 0x1e, 0xf5, 0xbd, 0xb8, 0xca, 0xf3, 0x3c,
  0x62, 0xfb, 0xff, 0xff, 0x04, 0x00, 0x00, 0x00, 0x00, 0x04, 0x00, 0x00,
  0xc9, 0xfa, 0xb8, 0xbe, 0x85, 0xb6, 0xcc, 0x3d, 0xfa, 0x37, 0x7f, 0x3e,
  0x43, 0xd9, 0x96, 0x3e, 0x17, 0x1b, 0xed, 0x3c, 0xa5, 0x76, 0x2d, 0xbe,
  0x21, 0x82, 0x09, 0xbe, 0xf9, 0x42, 0x46, 0xbe, 0xac, 0xba, 0x72, 0xbc,
  0xd8, 0x1b, 0x93, 0x3e, 0xb9, 0xea, 0x09, 0x3c, 0x15, 0xc1, 0x97, 0xbe,
  0x46, 0x9f, 0x49, 0x3e, 0x46, 0xc6, 0x0d, 0x3e, 0x7b, 0xce, 0x6f, 0x3c,
  0xdb, 0xd4, 0x2c, 0xbe, 0x31, 0xc1, 0x25, 0x3e, 0x0d, 0x6c, 0xb6, 0xbc,
  0x5c, 0x83, 0x91, 0x3e, 0x4a, 0xcc, 0x5a, 0x3e, 0xd0, 0xf5, 0x44, 0xbd,
  0x51, 0xd8, 0xab, 0xbe, 0x96, 0x23, 0x5d, 0x3e, 0xab, 0xbb, 0x98, 0xbe,
  0xc2, 0xd8, 0x0f, 0xbe, 0x29, 0xb5, 0xeb, 0x3e, 0x73, 0xbc, 0x80, 0x3e,
  0xb1, 0x6f, 0xfb, 0x3e, 0x48, 0x11, 0xbb, 0xbe, 0xa4, 0x3e, 0x6d, 0xbe,
  0x57, 0x62, 0x16, 0xbd, 0xcc, 0x1a, 0x76, 0x3e, 0x43, 0xe3, 0x2e, 0x3d,
  0xe4, 0x0a, 0x12, 0x3e, 0x52, 0xf6, 0x95, 0xbe, 0xfd, 0x8c, 0xc5, 0xbe,
  0x4c, 0xf1, 0x56, 0xbe, 0xab, 0xed, 0x48, 0xbe, 0xe5, 0x89, 0x6f, 0xbe,
  0xa1, 0x14, 0x49, 0xbe, 0x63, 0x85, 0x88, 0xbe, 0x45, 0x6e, 0x47, 0x3d,
  0xe7, 0xc7, 0x28, 0xbe, 0x73, 0xd3, 0x87, 0xbe, 0xb3, 0xa7, 0x9b, 0xbe,
  0x48, 0x68, 0xb4, 0xbd, 0x2f, 0x25, 0x33, 0xbe, 0x8d, 0xb6, 0x3c, 0x3e,
  0xfb, 0x0b, 0x74, 0xbd, 0xda, 0x15, 0x72, 0x3e, 0x9c, 0xb5, 0x14, 0x3f,
  0xc6, 0x41, 0xe0, 0x3e, 0xb3, 0x87, 0x7e, 0x3d, 0x46, 0x42, 0xe7, 0xbe,
  0x63, 0x7b, 0xaa, 0xbe, 0x01, 0x78, 0x8b, 0xbc, 0x2d, 0x75, 0x20, 0x3e,
  0x5d, 0x80, 0x99, 0xbe, 0x3c, 0x1c, 0x1c, 0xbe, 0x23, 0xad, 0x0b, 0x3d,
  0x22, 0x56, 0x88, 0xbe, 0x61, 0x71, 0x3c, 0xbe, 0xda, 0xc8, 0x35, 0xbd,
  0x97, 0x24, 0x65, 0x3e, 0xa4, 0x24, 0x8f, 0xbe, 0x9d, 0xe8, 0x49, 0xbe,
  0x8d, 0x7b, 0x8b, 0xbc, 0x2f, 0x3b, 0x0e, 0xbe, 0x8b, 0x5d, 0xd1, 0x3d,
  0x68, 0x82, 0xa3, 0x3e, 0x15, 0x0b, 0x38, 0xbe, 0xef, 0x68, 0x02, 0x3f,
  0x88, 0xfc, 0xa0, 0xbc, 0xe5, 0x5a, 0x8b, 0xbe, 0x0c, 0x5f, 0xa1, 0xbe,
  0x12, 0xdc, 0x3a, 0xbe, 0x26, 0x53, 0xda, 0x3e, 0x21, 0x3a, 0xba, 0xbe,
  0xb8, 0x3a, 0xc9, 0xbd, 0x46, 0x52, 0xf1, 0x3e, 0x6b, 0x57, 0x8a, 0x3d,
  0x50, 0xf5, 0xe1, 0xbe, 0xce, 0xb1, 0x99, 0xbe, 0x77, 0xa2, 0x34, 0x3d,
  0x50, 0x74, 0x45, 0x3e, 0xcb, 0xf5, 0x80, 0x3e, 0xd5, 0x3c, 0xb6, 0xbe,
  0x4c, 0xc7, 0x8c, 0xbe, 0x19, 0xe6, 0xe4, 0xbd, 0xa1, 0x3a, 0x9f, 0x3d,
  0xed, 0x90, 0xf3, 0x3d, 0x94, 0x69, 0xc5, 0xbd, 0xb2, 0x1f, 0x3d, 0x3e,
  0x61, 0x54, 0xa3, 0xbe, 0xf2, 0x8b, 0x22, 0xbe, 0x43, 0x03, 0x7a, 0xbd,
  0xe4, 0x92, 0x09, 0x3f, 0xaa, 0x2e, 0x14, 0x3e, 0x84, 0x0b, 0xde, 0xbe,
  0xe9, 0xee, 0xd8, 0x3e, 0x21, 0x91, 0x8f, 0x3e, 0x4a, 0x8d, 0xa7, 0xbc,
  0x08, 0xfb, 0xfa, 0xbe, 0x0d, 0x80, 0xd7, 0x3d, 0x03, 0x40, 0x8b, 0x3d,
  0x6c, 0x8e, 0xae, 0xbe, 0xa6, 0x1f, 0x25, 0x3d, 0x53, 0xaf, 0x94, 0xbe,
  0xbf, 0x92, 0x24, 0x3e, 0x76, 0xcf, 0xc2, 0xbe, 0x35, 0x36, 0xa4, 0x3d,
  0x91, 0x0a, 0xe4, 0x3d, 0x7b, 0x20, 0x4a, 0x3e, 0xd2, 0x3b, 0xb9, 0xbe,
  0xe8, 0x1b, 0xf5, 0xbe, 0x0e, 0x30, 0x0b, 0xbd, 0x61, 0xb2, 0xde, 0x3e,
  0x8c, 0x6a, 0xe1, 0x3e, 0xc7, 0xfa, 0xe9, 0x3d, 0x3a, 0x4a, 0x7a, 0x3d,
  0x7e, 0xc9, 0x85, 0xbe, 0xa6, 0x6f, 0xc2, 0xbd, 0xd0, 0x02, 0x46, 0xbe,
  0x22, 0x5a, 0x44, 0xbe, 0x83, 0xe1, 0xc6, 0x3e, 0x6b, 0x2f, 0x86, 0x3e,
  0x1b, 0x7a, 0xe0, 0xbc, 0x28, 0xbc, 0x81, 0x3d, 0x98, 0x83, 0x9f, 0x3e,
  0xb8, 0x01, 0x10, 0x3f, 0xea, 0x97, 0x28, 0x3e, 0xb3, 0xfc, 0x64, 0xbe,
  0x9a, 0x90, 0xee, 0xbe, 0x61, 0xf9, 0x1a, 0xbf, 0xd2, 0xb0, 0x0d, 0x3e,
  0xd7, 0x07, 0x0e, 0xbe, 0x20, 0x86, 0x9c, 0x3e, 0xf1, 0x69, 0x99, 0xbe,
  0xf0, 0x1a, 0x7c, 0xbe, 0x15, 0x40, 0xa1, 0x3e, 0xa7, 0x5f, 0xd6, 0x3c,
  0x21, 0xd9, 0xb3, 0x3e, 0x96, 0x8e, 0x57, 0xbd, 0x48, 0x1d, 0xed, 0xbd,
  0x54, 0x78, 0xd4, 0x3e, 0x26, 0x0a, 0xf7, 0x3d, 0x66, 0x7f, 0xae, 0x3d,
  0xb4, 0xfd, 0x9f, 0xbe, 0x0c, 0x3b, 0x68, 0x3e, 0x0e, 0xf1, 0x5b, 0x3c,
  0xb6, 0xb3, 0x2f, 0x3e, 0xbe, 0x99, 0x92, 0x3e, 0xe2, 0x61, 0xb5, 0x3c,
  0xe6, 0x16, 0x4b, 0x3d, 0x1f, 0xec, 0xf8, 0xbe, 0x41, 0x0a, 0x37, 0x3e,
  0xd5, 0xf3, 0x13, 0xbf, 0x74, 0xc0, 0x93, 0x3e, 0x02, 0x08, 0xdb, 0xbc,
  0xad, 0x3c, 0x42, 0xbe, 0xb5, 0xe1, 0x34, 0xbf, 0x19, 0xab, 0x62, 0xbd,
  0xb9, 0xf4, 0xf8, 0xbe, 0xb5, 0xf7, 0xd9, 0x3e, 0x8a, 0x79, 0x4f, 0xbd,
  0xbd, 0x2b, 0x7d, 0xbe, 0x98, 0x65, 0x01, 0x3e, 0xbc, 0x0b, 0xb0, 0xbd,
  0xbd, 0x14, 0x87, 0x3e, 0x69, 0x28, 0x35, 0xbe, 0xfe, 0xe9, 0xd5, 0xbe,
  0x46, 0xbe, 0xd3, 0xbb, 0xb6, 0x7b, 0x98, 0x3e, 0x5e, 0xfd, 0x99, 0x3d,
  0x20, 0x0c, 0xd3, 0x3b, 0x57, 0xbc, 0x01, 0x3f, 0x6d, 0x96, 0xe3, 0xbe,
  0xc3, 0x50, 0x07, 0xbe, 0xb3, 0xe2, 0x1e, 0xbe, 0x66, 0x36, 0x8a, 0xbc,
  0x75, 0xd9, 0xf3, 0xbe, 0xd3, 0xcc, 0xe8, 0x3e, 0x19, 0xeb, 0x00, 0x3e,
  0x6e, 0xed, 0x73, 0x3e, 0xcc, 0x3b, 0x16, 0xbf, 0xc8, 0x91, 0xcd, 0x3e,
  0x23, 0x84, 0x8e, 0x3e, 0xf1, 0x4a, 0xb6, 0xbe, 0x2d, 0x3c, 0x6f, 0xbe,
  0x62, 0x82, 0x93, 0x3e, 0x74, 0x07, 0x48, 0x3d, 0x40, 0x87, 0xca, 0xbe,
  0x73, 0x16, 0x53, 0xbc, 0x21, 0x55, 0x16, 0xbe, 0xec, 0x42, 0xcd, 0xbe,
  0x34, 0x9d, 0xbc, 0xbe, 0x43, 0x5c, 0x0f, 0x3f, 0x84, 0x78, 0xa9, 0x3c,
  0xca, 0x12, 0x66, 0x3d, 0x49, 0x28, 0x30, 0x3d, 0x3b, 0x49, 0xd1, 0xbd,
  0x79, 0xbd, 0x85, 0xbe, 0x03, 0x2a, 0x31, 0x3e, 0xa1, 0x77, 0x82, 0x3c,
  0x5b, 0xd4, 0x8e, 0xbe, 0xbc, 0x04, 0x37, 0xbe, 0xd1, 0x6e, 0x91, 0x3e,
  0x2a, 0x0d, 0x68, 0xbe, 0x06, 0x42, 0x2b, 0xbb, 0x58, 0x9d, 0xc0, 0x3e,
  0x34, 0x91, 0xee, 0xbe, 0x33, 0x19, 0x02, 0x3d, 0x71, 0xf8, 0x0b, 0xbe,
  0x24, 0x44, 0x0c, 0xbf, 0xec, 0xf8, 0xc1, 0xbe, 0xb3, 0x09, 0xae, 0xbc,
  0x68, 0x04, 0x02, 0x3f, 0xb8, 0xcd, 0x48, 0xbe, 0x4d, 0x27, 0xd1, 0x3e,
  0x63, 0x38, 0x6a, 0xbd, 0x07, 0x27, 0xa2, 0xbd, 0xfc, 0x48, 0x55, 0x3e,
  0x66, 0xa2, 0x9b, 0xbe, 0x29, 0x01, 0x34, 0xbe, 0xf4, 0x17, 0xb4, 0xbd,
  0xd5, 0x1e, 0xd4, 0xbe, 0x1c, 0xea, 0xfc, 0x3e, 0x7b, 0x40, 0xe3, 0xbe,
  0x79, 0xb9, 0xae, 0xbe, 0x29, 0x6d, 0xe0, 0x3e, 0xea, 0x84, 0xd0, 0x3e,
  0xf9, 0x25, 0xe9, 0x3e, 0x2b, 0xc4, 0x6d, 0xbe, 0xec, 0x81, 0x08, 0xbd,
  0xf3, 0x84, 0xe3, 0x3e, 0xe2, 0x8d, 0xc7, 0x3e, 0xc5, 0x86, 0xd6, 0xbe,
  0xca, 0x8a, 0x3d, 0x3e, 0xe6, 0xbd, 0x11, 0x3f, 0x8d, 0x61, 0x98, 0xbe,
  0x60, 0x1a, 0xd1, 0x3d, 0x53, 0x69, 0x96, 0xbc, 0x90, 0xce, 0x8b, 0xbe,
  0x64, 0x93, 0xca, 0xbe, 0x39, 0x5d, 0x97, 0xba, 0xb3, 0x00, 0xa2, 0xbe,
  0xb9, 0x6a, 0x31, 0xbf, 0x6d, 0xd2, 0xad, 0xbe, 0x60, 0xd2, 0xfa, 0x3e,
  0x0a, 0x11, 0x07, 0xbf, 0xb4, 0x4a, 0x60, 0xbd, 0x40, 0xc4, 0x22, 0x3f,
  0x7c, 0xb8, 0xc3, 0x3d, 0xff, 0x51, 0x8b, 0xbe, 0x05, 0xed, 0x0b, 0xbf,
  0x9b, 0xab, 0x84, 0x3f, 0xb4, 0xfb, 0xff, 0xff, 0xb8, 0xfb, 0xff, 0xff,
  0x0f, 0x00, 0x00, 0x00, 0x4d, 0x4c, 0x49, 0x52, 0x20, 0x43, 0x6f, 0x6e,
  0x76, 0x65, 0x72, 0x74, 0x65, 0x64, 0x2e, 0x00, 0x01, 0x00, 0x00, 0x00,
  0x14, 0x00, 0x00, 0x00, 0x00, 0x00, 0x0e, 0x00, 0x18, 0x00, 0x14, 0x00,
  0x10, 0x00, 0x0c, 0x00, 0x08, 0x00, 0x04, 0x00, 0x0e, 0x00, 0x00, 0x00,
  0x14, 0x00, 0x00, 0x00, 0x1c, 0x00, 0x00, 0x00, 0xec, 0x00, 0x00, 0x00,
  0xf0, 0x00, 0x00, 0x00, 0xf4, 0x00, 0x00, 0x00, 0x04, 0x00, 0x00, 0x00,
  0x6d, 0x61, 0x69, 0x6e, 0x00, 0x00, 0x00, 0x00, 0x03, 0x00, 0x00, 0x00,
  0x94, 0x00, 0x00, 0x00, 0x50, 0x00, 0x00, 0x00, 0x14, 0x00, 0x00, 0x00,
  0x00, 0x00, 0x0e, 0x00, 0x1a, 0x00, 0x14, 0x00, 0x10, 0x00, 0x0c, 0x00,
  0x0b, 0x00, 0x04, 0x00, 0x0e, 0x00, 0x00, 0x00, 0x1c, 0x00, 0x00, 0x00,
  0x00, 0x00, 0x00, 0x09, 0x1c, 0x00, 0x00, 0x00, 0x20, 0x00, 0x00, 0x00,
  0x01, 0x00, 0x00, 0x00, 0x00, 0x00, 0x06, 0x00, 0x08, 0x00, 0x04, 0x00,
  0x06, 0x00, 0x00, 0x00, 0x00, 0x00, 0x80, 0x3f, 0x01, 0x00, 0x00, 0x00,
  0x07, 0x00, 0x00, 0x00, 0x01, 0x00, 0x00, 0x00, 0x06, 0x00, 0x00, 0x00,
  0xce, 0xff, 0xff, 0xff, 0x10, 0x00, 0x00, 0x00, 0x00, 0x00, 0x00, 0x08,
  0x0c, 0x00, 0x00, 0x00, 0x10, 0x00, 0x00, 0x00, 0x78, 0xfc, 0xff, 0xff,
  0x01, 0x00, 0x00, 0x00, 0x06, 0x00, 0x00, 0x00, 0x03, 0x00, 0x00, 0x00,
  0x05, 0x00, 0x00, 0x00, 0x01, 0x00, 0x00, 0x00, 0x02, 0x00, 0x00, 0x00,
  0x00, 0x00, 0x0e, 0x00, 0x16, 0x00, 0x00, 0x00, 0x10, 0x00, 0x0c, 0x00,
  0x0b, 0x00, 0x04, 0x00, 0x0e, 0x00, 0x00, 0x00, 0x18, 0x00, 0x00, 0x00,
  0x00, 0x00, 0x00, 0x08, 0x18, 0x00, 0x00, 0x00, 0x1c, 0x00, 0x00, 0x00,
  0x00, 0x00, 0x06, 0x00, 0x08, 0x00, 0x07, 0x00, 0x06, 0x00, 0x00, 0x00,
  0x00, 0x00, 0x00, 0x01, 0x01, 0x00, 0x00, 0x00, 0x05, 0x00, 0x00, 0x00,
  0x03, 0x00, 0x00, 0x00, 0x00, 0x00, 0x00, 0x00, 0x04, 0x00, 0x00, 0x00,
  0x03, 0x00, 0x00, 0x00, 0x01, 0x00, 0x00, 0x00, 0x07, 0x00, 0x00, 0x00,
  0x01, 0x00, 0x00, 0x00, 0x00, 0x00, 0x00, 0x00, 0x08, 0x00, 0x00, 0x00,
  0xe4, 0x02, 0x00, 0x00, 0x8c, 0x02, 0x00, 0x00, 0x18, 0x02, 0x00, 0x00,
  0xc0, 0x01, 0x00, 0x00, 0x74, 0x01, 0x00, 0x00, 0xe0, 0x00, 0x00, 0x00,
  0x60, 0x00, 0x00, 0x00, 0x04, 0x00, 0x00, 0x00, 0x52, 0xfd, 0xff, 0xff,
  0x00, 0x00, 0x00, 0x01, 0x14, 0x00, 0x00, 0x00, 0x1c, 0x00, 0x00, 0x00,
  0x1c, 0x00, 0x00, 0x00, 0x08, 0x00, 0x00, 0x00, 0x34, 0x00, 0x00, 0x00,
  0x02, 0x00, 0x00, 0x00, 0xff, 0xff, 0xff, 0xff, 0x04, 0x00, 0x00, 0x00,
  0x3c, 0xfd, 0xff, 0xff, 0x1b, 0x00, 0x00, 0x00, 0x53, 0x74, 0x61, 0x74,
  0x65, 0x66, 0x75, 0x6c, 0x50, 0x61, 0x72, 0x74, 0x69, 0x74, 0x69, 0x6f,
  0x6e, 0x65, 0x64, 0x43, 0x61, 0x6c, 0x6c, 0x5f, 0x31, 0x3a, 0x30, 0x00,
  0x02, 0x00, 0x00, 0x00, 0x01, 0x00, 0x00, 0x00, 0x04, 0x00, 0x00, 0x00,
  0xaa, 0xfd, 0xff, 0xff, 0x00, 0x00, 0x00, 0x01, 0x14, 0x00, 0x00, 0x00,
  0x1c, 0x00, 0x00, 0x00, 0x1c, 0x00, 0x00, 0x00, 0x07, 0x00, 0x00, 0x00,
  0x58, 0x00, 0x00, 0x00, 0x02, 0x00, 0x00, 0x00, 0xff, 0xff, 0xff, 0xff,
  0x04, 0x00, 0x00, 0x00, 0x94, 0xfd, 0xff, 0xff, 0x3c, 0x00, 0x00, 0x00,
  0x73, 0x65, 0x71, 0x75, 0x65, 0x6e, 0x74, 0x69, 0x61, 0x6c, 0x5f, 0x31,
  0x2f, 0x64, 0x65, 0x6e, 0x73, 0x65, 0x5f, 0x31, 0x5f, 0x32, 0x2f, 0x4d,
  0x61, 0x74, 0x4d, 0x75, 0x6c, 0x3b, 0x73, 0x65, 0x71, 0x75, 0x65, 0x6e,
  0x74, 0x69, 0x61, 0x6c, 0x5f, 0x31, 0x2f, 0x64, 0x65, 0x6e, 0x73, 0x65,
  0x5f, 0x31, 0x5f, 0x32, 0x2f, 0x42, 0x69, 0x61, 0x73, 0x41, 0x64, 0x64,
  0x00, 0x00, 0x00, 0x00, 0x02, 0x00, 0x00, 0x00, 0x01, 0x00, 0x00, 0x00,
  0x04, 0x00, 0x00, 0x00, 0x26, 0xfe, 0xff, 0xff, 0x00, 0x00, 0x00, 0x01,
  0x14, 0x00, 0x00, 0x00, 0x1c, 0x00, 0x00, 0x00, 0x1c, 0x00, 0x00, 0x00,
  0x06, 0x00, 0x00, 0x00, 0x6c, 0x00, 0x00, 0x00, 0x02, 0x00, 0x00, 0x00,
  0xff, 0xff, 0xff, 0xff, 0x40, 0x00, 0x00, 0x00, 0x10, 0xfe, 0xff, 0xff,
  0x52, 0x00, 0x00, 0x00, 0x73, 0x65, 0x71, 0x75, 0x65, 0x6e, 0x74, 0x69,
  0x61, 0x6c, 0x5f, 0x31, 0x2f, 0x64, 0x65, 0x6e, 0x73, 0x65, 0x5f, 0x31,
  0x2f, 0x4d, 0x61, 0x74, 0x4d, 0x75, 0x6c, 0x3b, 0x73, 0x65, 0x71, 0x75,
  0x65, 0x6e, 0x74, 0x69, 0x61, 0x6c, 0x5f, 0x31, 0x2f, 0x64, 0x65, 0x6e,
  0x73, 0x65, 0x5f, 0x31, 0x2f, 0x52, 0x65, 0x6c, 0x75, 0x3b, 0x73, 0x65,
  0x71, 0x75, 0x65, 0x6e, 0x74, 0x69, 0x61, 0x6c, 0x5f, 0x31, 0x2f, 0x64,
  0x65, 0x6e, 0x73, 0x65, 0x5f, 0x31, 0x2f, 0x42, 0x69, 0x61, 0x73, 0x41,
  0x64, 0x64, 0x00, 0x00, 0x02, 0x00, 0x00, 0x00, 0x01, 0x00, 0x00, 0x00,
  0x40, 0x00, 0x00, 0x00, 0x0a, 0xff, 0xff, 0xff, 0x00, 0x00, 0x00, 0x01,
  0x10, 0x00, 0x00, 0x00, 0x10, 0x00, 0x00, 0x00, 0x05, 0x00, 0x00, 0x00,
  0x28, 0x00, 0x00, 0x00, 0x90, 0xfe, 0xff, 0xff, 0x1b, 0x00, 0x00, 0x00,
  0x73, 0x65, 0x71, 0x75, 0x65, 0x6e, 0x74, 0x69, 0x61, 0x6c, 0x5f, 0x31,
  0x2f, 0x64, 0x65, 0x6e, 0x73, 0x65, 0x5f, 0x31, 0x2f, 0x4d, 0x61, 0x74,
  0x4d, 0x75, 0x6c, 0x00, 0x02, 0x00, 0x00, 0x00, 0x40, 0x00, 0x00, 0x00,
  0x08, 0x00, 0x00, 0x00, 0x52, 0xff, 0xff, 0xff, 0x00, 0x00, 0x00, 0x01,
  0x10, 0x00, 0x00, 0x00, 0x10, 0x00, 0x00, 0x00, 0x04, 0x00, 0x00, 0x00,
  0x38, 0x00, 0x00, 0x00, 0xd8, 0xfe, 0xff, 0xff, 0x2b, 0x00, 0x00, 0x00,
  0x73, 0x65, 0x71, 0x75, 0x65, 0x6e, 0x74, 0x69, 0x61, 0x6c, 0x5f, 0x31,
  0x2f, 0x64, 0x65, 0x6e, 0x73, 0x65, 0x5f, 0x31, 0x2f, 0x42, 0x69, 0x61,
  0x73, 0x41, 0x64, 0x64, 0x2f, 0x52, 0x65, 0x61, 0x64, 0x56, 0x61, 0x72,
  0x69, 0x61, 0x62, 0x6c, 0x65, 0x4f, 0x70, 0x00, 0x01, 0x00, 0x00, 0x00,
  0x40, 0x00, 0x00, 0x00, 0xa6, 0xff, 0xff, 0xff, 0x00, 0x00, 0x00, 0x01,
  0x10, 0x00, 0x00, 0x00, 0x10, 0x00, 0x00, 0x00, 0x03, 0x00, 0x00, 0x00,
  0x3c, 0x00, 0x00, 0x00, 0x2c, 0xff, 0xff, 0xff, 0x2d, 0x00, 0x00, 0x00,
  0x73, 0x65, 0x71, 0x75, 0x65, 0x6e, 0x74, 0x69, 0x61, 0x6c, 0x5f, 0x31,
  0x2f, 0x64, 0x65, 0x6e, 0x73, 0x65, 0x5f, 0x31, 0x5f, 0x32, 0x2f, 0x42,
  0x69, 0x61, 0x73, 0x41, 0x64, 0x64, 0x2f, 0x52, 0x65, 0x61, 0x64, 0x56,
  0x61, 0x72, 0x69, 0x61, 0x62, 0x6c, 0x65, 0x4f, 0x70, 0x00, 0x00, 0x00,
  0x01, 0x00, 0x00, 0x00, 0x04, 0x00, 0x00, 0x00, 0x00, 0x00, 0x16, 0x00,
  0x18, 0x00, 0x14, 0x00, 0x00, 0x00, 0x10, 0x00, 0x0c, 0x00, 0x08, 0x00,
  0x00, 0x00, 0x00, 0x00, 0x00, 0x00, 0x07, 0x00, 0x16, 0x00, 0x00, 0x00,
  0x00, 0x00, 0x00, 0x01, 0x10, 0x00, 0x00, 0x00, 0x10, 0x00, 0x00, 0x00,
  0x02, 0x00, 0x00, 0x00, 0x1c, 0x00, 0x00, 0x00, 0x9c, 0xff, 0xff, 0xff,
  0x0e, 0x00, 0x00, 0x00, 0x61, 0x72, 0x69, 0x74, 0x68, 0x2e, 0x63, 0x6f,
  0x6e, 0x73, 0x74, 0x61, 0x6e, 0x74, 0x00, 0x00, 0x02, 0x00, 0x00, 0x00,
  0x04, 0x00, 0x00, 0x00, 0x40, 0x00, 0x00, 0x00, 0x00, 0x00, 0x16, 0x00,
  0x1c, 0x00, 0x18, 0x00, 0x00, 0x00, 0x14, 0x00, 0x10, 0x00, 0x0c, 0x00,
  0x00, 0x00, 0x00, 0x00, 0x08, 0x00, 0x07, 0x00, 0x16, 0x00, 0x00, 0x00,
  0x00, 0x00, 0x00, 0x01, 0x14, 0x00, 0x00, 0x00, 0x20, 0x00, 0x00, 0x00,
  0x20, 0x00, 0x00, 0x00, 0x01, 0x00, 0x00, 0x00, 0x3c, 0x00, 0x00, 0x00,
  0x02, 0x00, 0x00, 0x00, 0xff, 0xff, 0xff, 0xff, 0x08, 0x00, 0x00, 0x00,
  0x04, 0x00, 0x04, 0x00, 0x04, 0x00, 0x00, 0x00, 0x1e, 0x00, 0x00, 0x00,
  0x73, 0x65, 0x72, 0x76, 0x69, 0x6e, 0x67, 0x5f, 0x64, 0x65, 0x66, 0x61,
  0x75, 0x6c, 0x74, 0x5f, 0x6b, 0x65, 0x72, 0x61, 0x73, 0x5f, 0x74, 0x65,
  0x6e, 0x73, 0x6f, 0x72, 0x3a, 0x30, 0x00, 0x00, 0x02, 0x00, 0x00, 0x00,
  0x01, 0x00, 0x00, 0x00, 0x08, 0x00, 0x00, 0x00, 0x02, 0x00, 0x00, 0x00,
  0x20, 0x00, 0x00, 0x00, 0x04, 0x00, 0x00, 0x00, 0xf4, 0xff, 0xff, 0xff,
  0x19, 0x00, 0x00, 0x00, 0x00, 0x00, 0x00, 0x19, 0x0c, 0x00, 0x0c, 0x00,
  0x0b, 0x00, 0x00, 0x00, 0x00, 0x00, 0x04, 0x00, 0x0c, 0x00, 0x00, 0x00,
  0x09, 0x00, 0x00, 0x00, 0x00, 0x00, 0x00, 0x09
};
unsigned int model_tflite_len = 5072;
