#include "model_data.h"

// CNN dual-branch + datasheet-evidence gas classification model, INT8 quantized.
// Source: cnn_gas_datasheet_model_data.h from CNN_Gas_Classification_Datasheet_TFLite_ESP32 notebook.
// Unbound placeholder pending field validation -- see ModelMetadata.h PRODUCTION_APPROVED.
alignas(16) const unsigned char g_cnn_gas_datasheet_model_data[] = {
    0x20, 0x00, 0x00, 0x00, 0x54, 0x46, 0x4c, 0x33, 0x00, 0x00, 0x00, 0x00,
    0x14, 0x00, 0x20, 0x00, 0x1c, 0x00, 0x18, 0x00, 0x14, 0x00, 0x10, 0x00,
    0x0c, 0x00, 0x00, 0x00, 0x08, 0x00, 0x04, 0x00, 0x14, 0x00, 0x00, 0x00,
    0x1c, 0x00, 0x00, 0x00, 0xac, 0x00, 0x00, 0x00, 0x04, 0x01, 0x00, 0x00,
    0xf8, 0x08, 0x00, 0x00, 0x08, 0x09, 0x00, 0x00, 0x88, 0x23, 0x00, 0x00,
    0x03, 0x00, 0x00, 0x00, 0x01, 0x00, 0x00, 0x00, 0x04, 0x00, 0x00, 0x00,
    0xf2, 0xf3, 0xff, 0xff, 0x0c, 0x00, 0x00, 0x00, 0x1c, 0x00, 0x00, 0x00,
    0x3c, 0x00, 0x00, 0x00, 0x0f, 0x00, 0x00, 0x00, 0x73, 0x65, 0x72, 0x76,
    0x69, 0x6e, 0x67, 0x5f, 0x64, 0x65, 0x66, 0x61, 0x75, 0x6c, 0x74, 0x00,
    0x01, 0x00, 0x00, 0x00, 0x04, 0x00, 0x00, 0x00, 0x70, 0xff, 0xff, 0xff,
    0x1f, 0x00, 0x00, 0x00, 0x04, 0x00, 0x00, 0x00, 0x08, 0x00, 0x00, 0x00,
    0x6f, 0x75, 0x74, 0x70, 0x75, 0x74, 0x5f, 0x30, 0x00, 0x00, 0x00, 0x00,
    0x02, 0x00, 0x00, 0x00, 0x24, 0x00, 0x00, 0x00, 0x04, 0x00, 0x00, 0x00,
    0x9e, 0xf5, 0xff, 0xff, 0x04, 0x00, 0x00, 0x00, 0x0e, 0x00, 0x00, 0x00,
    0x65, 0x76, 0x69, 0x64, 0x65, 0x6e, 0x63, 0x65, 0x5f, 0x69, 0x6e, 0x70,
    0x75, 0x74, 0x00, 0x00, 0xb4, 0xff, 0xff, 0xff, 0x01, 0x00, 0x00, 0x00,
    0x04, 0x00, 0x00, 0x00, 0x09, 0x00, 0x00, 0x00, 0x61, 0x64, 0x63, 0x5f,
    0x69, 0x6e, 0x70, 0x75, 0x74, 0x00, 0x00, 0x00, 0x02, 0x00, 0x00, 0x00,
    0x34, 0x00, 0x00, 0x00, 0x04, 0x00, 0x00, 0x00, 0xdc, 0xff, 0xff, 0xff,
    0x22, 0x00, 0x00, 0x00, 0x04, 0x00, 0x00, 0x00, 0x13, 0x00, 0x00, 0x00,
    0x43, 0x4f, 0x4e, 0x56, 0x45, 0x52, 0x53, 0x49, 0x4f, 0x4e, 0x5f, 0x4d,
    0x45, 0x54, 0x41, 0x44, 0x41, 0x54, 0x41, 0x00, 0x08, 0x00, 0x0c, 0x00,
    0x08, 0x00, 0x04, 0x00, 0x08, 0x00, 0x00, 0x00, 0x21, 0x00, 0x00, 0x00,
    0x04, 0x00, 0x00, 0x00, 0x13, 0x00, 0x00, 0x00, 0x6d, 0x69, 0x6e, 0x5f,
    0x72, 0x75, 0x6e, 0x74, 0x69, 0x6d, 0x65, 0x5f, 0x76, 0x65, 0x72, 0x73,
    0x69, 0x6f, 0x6e, 0x00, 0x23, 0x00, 0x00, 0x00, 0xf0, 0x07, 0x00, 0x00,
    0xe8, 0x07, 0x00, 0x00, 0xe0, 0x07, 0x00, 0x00, 0xcc, 0x07, 0x00, 0x00,
    0xb0, 0x07, 0x00, 0x00, 0x9c, 0x07, 0x00, 0x00, 0x80, 0x07, 0x00, 0x00,
    0x6c, 0x07, 0x00, 0x00, 0x64, 0x07, 0x00, 0x00, 0x50, 0x07, 0x00, 0x00,
    0x34, 0x07, 0x00, 0x00, 0xf4, 0x06, 0x00, 0x00, 0xa4, 0x06, 0x00, 0x00,
    0x14, 0x02, 0x00, 0x00, 0xe4, 0x01, 0x00, 0x00, 0x9c, 0x01, 0x00, 0x00,
    0x4c, 0x01, 0x00, 0x00, 0x0c, 0x01, 0x00, 0x00, 0x04, 0x01, 0x00, 0x00,
    0xfc, 0x00, 0x00, 0x00, 0xf4, 0x00, 0x00, 0x00, 0xec, 0x00, 0x00, 0x00,
    0xe4, 0x00, 0x00, 0x00, 0xdc, 0x00, 0x00, 0x00, 0xd4, 0x00, 0x00, 0x00,
    0xcc, 0x00, 0x00, 0x00, 0xc4, 0x00, 0x00, 0x00, 0xbc, 0x00, 0x00, 0x00,
    0xb4, 0x00, 0x00, 0x00, 0xac, 0x00, 0x00, 0x00, 0xa4, 0x00, 0x00, 0x00,
    0x9c, 0x00, 0x00, 0x00, 0x94, 0x00, 0x00, 0x00, 0x74, 0x00, 0x00, 0x00,
    0x04, 0x00, 0x00, 0x00, 0xc2, 0xf6, 0xff, 0xff, 0x04, 0x00, 0x00, 0x00,
    0x60, 0x00, 0x00, 0x00, 0x0c, 0x00, 0x00, 0x00, 0x08, 0x00, 0x0e, 0x00,
    0x08, 0x00, 0x04, 0x00, 0x08, 0x00, 0x00, 0x00, 0x10, 0x00, 0x00, 0x00,
    0x28, 0x00, 0x00, 0x00, 0x00, 0x00, 0x06, 0x00, 0x08, 0x00, 0x04, 0x00,
    0x06, 0x00, 0x00, 0x00, 0x04, 0x00, 0x00, 0x00, 0x01, 0x00, 0x00, 0x00,
    0xeb, 0x03, 0x00, 0x00, 0x0c, 0x00, 0x18, 0x00, 0x14, 0x00, 0x10, 0x00,
    0x0c, 0x00, 0x04, 0x00, 0x0c, 0x00, 0x00, 0x00, 0x6d, 0x60, 0x47, 0xc9,
    0xf0, 0x9c, 0xa1, 0xe7, 0x02, 0x00, 0x00, 0x00, 0x02, 0x00, 0x00, 0x00,
    0x04, 0x00, 0x00, 0x00, 0x06, 0x00, 0x00, 0x00, 0x32, 0x2e, 0x32, 0x31,
    0x2e, 0x30, 0x00, 0x00, 0x2e, 0xf7, 0xff, 0xff, 0x04, 0x00, 0x00, 0x00,
    0x10, 0x00, 0x00, 0x00, 0x31, 0x2e, 0x31, 0x34, 0x2e, 0x30, 0x00, 0x00,
    0x00, 0x00, 0x00, 0x00, 0x00, 0x00, 0x00, 0x00, 0xfc, 0xdf, 0xff, 0xff,
    0x00, 0xe0, 0xff, 0xff, 0x04, 0xe0, 0xff, 0xff, 0x08, 0xe0, 0xff, 0xff,
    0x0c, 0xe0, 0xff, 0xff, 0x10, 0xe0, 0xff, 0xff, 0x14, 0xe0, 0xff, 0xff,
    0x18, 0xe0, 0xff, 0xff, 0x1c, 0xe0, 0xff, 0xff, 0x20, 0xe0, 0xff, 0xff,
    0x24, 0xe0, 0xff, 0xff, 0x28, 0xe0, 0xff, 0xff, 0x2c, 0xe0, 0xff, 0xff,
    0x30, 0xe0, 0xff, 0xff, 0x34, 0xe0, 0xff, 0xff, 0x86, 0xf7, 0xff, 0xff,
    0x04, 0x00, 0x00, 0x00, 0x30, 0x00, 0x00, 0x00, 0xfc, 0x81, 0x96, 0x21,
    0x7f, 0x6d, 0x15, 0x7f, 0x02, 0x41, 0x81, 0xf5, 0x4e, 0x1f, 0x7f, 0xf0,
    0x84, 0x81, 0xbc, 0xe3, 0x81, 0x2d, 0x81, 0x40, 0x6c, 0x81, 0xe3, 0x52,
    0x81, 0x10, 0xea, 0x81, 0xf0, 0x16, 0x7f, 0x06, 0x81, 0x5f, 0xc2, 0x7f,
    0x9e, 0xb9, 0x81, 0x9f, 0x6a, 0x7f, 0xc1, 0x3d, 0xc2, 0xf7, 0xff, 0xff,
    0x04, 0x00, 0x00, 0x00, 0x40, 0x00, 0x00, 0x00, 0x00, 0x00, 0x00, 0x00,
    0x34, 0x20, 0x00, 0x00, 0xa0, 0x0b, 0x00, 0x00, 0xe8, 0x22, 0x00, 0x00,
    0xf3, 0xf3, 0xff, 0xff, 0x00, 0x00, 0x00, 0x00, 0x00, 0x00, 0x00, 0x00,
    0x06, 0x0a, 0x00, 0x00, 0xdf, 0x1d, 0x00, 0x00, 0x93, 0x25, 0x00, 0x00,
    0x00, 0x00, 0x00, 0x00, 0x24, 0x01, 0x00, 0x00, 0x43, 0x24, 0x00, 0x00,
    0xf6, 0x0b, 0x00, 0x00, 0xc9, 0x29, 0x00, 0x00, 0xac, 0x06, 0x00, 0x00,
    0x0e, 0xf8, 0xff, 0xff, 0x04, 0x00, 0x00, 0x00, 0x38, 0x00, 0x00, 0x00,
    0xb5, 0xd3, 0x81, 0x19, 0x0b, 0x81, 0x97, 0x57, 0x8f, 0x9c, 0x0d, 0x81,
    0x17, 0xa7, 0x50, 0x70, 0x3a, 0x0f, 0xc1, 0x09, 0x7f, 0x14, 0xff, 0x16,
    0x2e, 0x7f, 0x58, 0x42, 0x34, 0xec, 0xca, 0xf1, 0x81, 0x58, 0x32, 0x92,
    0x81, 0xc2, 0x12, 0xa8, 0x1a, 0x83, 0xc1, 0xd0, 0x5c, 0x67, 0x81, 0x51,
    0x84, 0x3a, 0x1e, 0x28, 0x53, 0xf7, 0xed, 0x7f, 0x52, 0xf8, 0xff, 0xff,
    0x04, 0x00, 0x00, 0x00, 0x20, 0x00, 0x00, 0x00, 0x00, 0x00, 0x00, 0x00,
    0x00, 0x00, 0x00, 0x00, 0x76, 0x14, 0x00, 0x00, 0x1c, 0xf6, 0xff, 0xff,
    0x2d, 0xf4, 0xff, 0xff, 0x00, 0x00, 0x00, 0x00, 0xf1, 0xf5, 0xff, 0xff,
    0xb5, 0x00, 0x00, 0x00, 0x7e, 0xf8, 0xff, 0xff, 0x04, 0x00, 0x00, 0x00,
    0x80, 0x04, 0x00, 0x00, 0x17, 0x21, 0x11, 0xe9, 0x43, 0x0e, 0x01, 0xfb,
    0xb1, 0xdc, 0x06, 0x0b, 0xda, 0xa7, 0x79, 0x19, 0x1e, 0x4d, 0x46, 0xfb,
    0x04, 0x0e, 0xff, 0x1a, 0x18, 0x12, 0xe5, 0x4a, 0x30, 0x26, 0xc8, 0x4f,
    0xf2, 0x01, 0x45, 0xa3, 0x07, 0x28, 0xfa, 0x92, 0x9e, 0xa9, 0x00, 0x2d,
    0x9d, 0x15, 0x20, 0xd8, 0x1a, 0x1d, 0x2f, 0xce, 0x14, 0xfd, 0xe6, 0xee,
    0xdf, 0xb7, 0xde, 0x05, 0x81, 0x01, 0xe5, 0xfc, 0x1c, 0x19, 0x3d, 0x56,
    0xf3, 0xf6, 0x05, 0x26, 0x05, 0xb3, 0xd5, 0x99, 0xd4, 0x58, 0x3f, 0xe4,
    0x1f, 0xcd, 0x29, 0x40, 0xa7, 0x0f, 0xb5, 0xfd, 0x22, 0x8d, 0x98, 0x40,
    0x78, 0x8a, 0x21, 0x99, 0xbd, 0x3a, 0xf4, 0x77, 0xd5, 0x97, 0x86, 0x04,
    0x69, 0xfc, 0xa2, 0x1a, 0xad, 0x67, 0x81, 0xa0, 0x46, 0xbe, 0x3f, 0x90,
    0xa5, 0x8d, 0x88, 0xf5, 0x99, 0xba, 0xc1, 0x48, 0xdd, 0x21, 0x9d, 0x6a,
    0x04, 0x6c, 0x40, 0x2d, 0xfa, 0xdb, 0xb2, 0xe8, 0xae, 0x27, 0x2b, 0xc6,
    0x0b, 0x95, 0x7a, 0x23, 0xd6, 0xf9, 0x6b, 0x64, 0xef, 0xc9, 0x32, 0x1e,
    0x28, 0x99, 0xde, 0xfd, 0x4e, 0xf4, 0xae, 0xa8, 0xa5, 0xa0, 0xd6, 0x56,
    0x4a, 0x5c, 0x5d, 0xc3, 0x42, 0x23, 0xdc, 0x51, 0x81, 0x3b, 0x42, 0x05,
    0xc8, 0x0e, 0xc8, 0x96, 0x97, 0x0d, 0x2b, 0xa5, 0x2b, 0x4d, 0x65, 0xda,
    0xf8, 0x6a, 0x10, 0xcb, 0x62, 0xc6, 0x54, 0x32, 0x8f, 0x57, 0x4d, 0x33,
    0xce, 0x46, 0x41, 0xfe, 0xbe, 0x43, 0xd6, 0xa4, 0xc4, 0xec, 0x04, 0xbb,
    0x35, 0xd1, 0x96, 0x2a, 0x45, 0x57, 0x9f, 0x69, 0xb3, 0xb5, 0x3e, 0xd9,
    0x77, 0xd3, 0xf9, 0x82, 0x83, 0xcc, 0xc1, 0xe4, 0xd0, 0xec, 0x09, 0xba,
    0x36, 0xd1, 0x8f, 0x28, 0xbc, 0x2c, 0x64, 0xea, 0xfb, 0x1b, 0x5b, 0x88,
    0xa9, 0x09, 0x11, 0x96, 0x9c, 0xb1, 0x49, 0xf6, 0x14, 0x7f, 0x9c, 0x89,
    0x45, 0xa5, 0x98, 0x13, 0x66, 0x9c, 0xdb, 0xe9, 0xc6, 0xc5, 0xf5, 0xc0,
    0x33, 0xda, 0x29, 0xfe, 0x4b, 0xb3, 0x8e, 0xa4, 0x5a, 0xe1, 0x28, 0xc4,
    0x33, 0x0d, 0x38, 0xe2, 0x0d, 0x1a, 0x16, 0xe9, 0x02, 0xff, 0x20, 0x5d,
    0xe2, 0xe0, 0xe4, 0x1d, 0xff, 0xc5, 0x45, 0xdd, 0x10, 0x17, 0x3a, 0x01,
    0x2f, 0xde, 0x1a, 0xe8, 0xf6, 0x0f, 0x07, 0x61, 0x69, 0x0b, 0xb2, 0x14,
    0x01, 0x22, 0x24, 0x81, 0x0c, 0xf0, 0x0a, 0x90, 0xb2, 0xc4, 0x21, 0x35,
    0xb2, 0x36, 0x0f, 0x06, 0x03, 0x24, 0x05, 0xcf, 0x35, 0xfd, 0x18, 0xee,
    0xeb, 0xed, 0xea, 0xfb, 0xa1, 0xe5, 0xef, 0xf1, 0xf5, 0xfe, 0x19, 0x3f,
    0xfd, 0xe0, 0x1b, 0x3a, 0xf8, 0x24, 0x27, 0x05, 0xf6, 0x01, 0x0e, 0x81,
    0x22, 0xe3, 0x12, 0x29, 0x0f, 0x22, 0xa9, 0x00, 0x1f, 0x12, 0x9f, 0xc0,
    0xf0, 0xe4, 0xf0, 0xcf, 0xcd, 0xea, 0xf9, 0xc3, 0x97, 0x9f, 0x51, 0xbd,
    0x12, 0x17, 0x28, 0x57, 0x0d, 0x0d, 0x1f, 0x70, 0x57, 0x26, 0x10, 0x29,
    0x3c, 0xd8, 0xbd, 0x39, 0x14, 0x1a, 0x25, 0x05, 0xec, 0x11, 0x1f, 0x1a,
    0x22, 0x38, 0x1e, 0x12, 0x3d, 0x16, 0xdd, 0x02, 0x18, 0xf6, 0x47, 0xc5,
    0x12, 0xfe, 0xfa, 0x25, 0xe6, 0xca, 0x04, 0x39, 0x20, 0xe0, 0x0b, 0x32,
    0x1b, 0x18, 0x20, 0x14, 0x1d, 0x33, 0xff, 0x38, 0x1c, 0xd9, 0x02, 0x2e,
    0x18, 0xe1, 0x12, 0x2b, 0x47, 0x1c, 0x0e, 0x0b, 0x0e, 0x2a, 0xcd, 0x07,
    0xec, 0x03, 0xfa, 0x2c, 0xdc, 0x15, 0xf5, 0x34, 0xf6, 0x2b, 0x07, 0xde,
    0x7f, 0xdd, 0x7b, 0x21, 0x03, 0xeb, 0x05, 0x46, 0xbf, 0x12, 0xee, 0x1c,
    0x2d, 0x24, 0x1e, 0x11, 0x1f, 0x1c, 0x33, 0x01, 0x1e, 0xf0, 0xa5, 0xbb,
    0x1d, 0x12, 0xee, 0xa2, 0xfa, 0x15, 0x05, 0x1d, 0xfb, 0x0e, 0xe7, 0x0f,
    0xfb, 0x27, 0xe7, 0x0c, 0x04, 0x16, 0xd4, 0xf8, 0xea, 0xd5, 0xdb, 0x1b,
    0xe9, 0x05, 0x15, 0x1f, 0x24, 0x1a, 0xf0, 0xeb, 0xdc, 0x26, 0x20, 0xf0,
    0xf2, 0x02, 0x0c, 0x6d, 0xfc, 0x17, 0xf9, 0x7f, 0x4f, 0x26, 0xf2, 0xf8,
    0x4b, 0xda, 0x0c, 0xf8, 0x1a, 0x16, 0xf5, 0x0d, 0x09, 0xf5, 0x0b, 0x1a,
    0x28, 0x0e, 0xec, 0xee, 0x68, 0x0a, 0x5a, 0x0f, 0xf1, 0x0a, 0xed, 0xd1,
    0xe8, 0xe7, 0x5d, 0xfe, 0x98, 0x90, 0xe1, 0xd5, 0x81, 0xe5, 0x2b, 0x5a,
    0xcd, 0x1a, 0x14, 0x89, 0xdc, 0xd7, 0x27, 0x13, 0xa2, 0x1f, 0xbf, 0x2f,
    0xaf, 0x9c, 0x68, 0x21, 0x97, 0x54, 0x70, 0x63, 0xd0, 0x6f, 0x88, 0x0b,
    0x23, 0xbd, 0x97, 0x30, 0x8d, 0x09, 0x2e, 0xc9, 0xae, 0x4d, 0x9b, 0xd5,
    0x20, 0x27, 0x32, 0x91, 0xa3, 0x24, 0x71, 0x14, 0x71, 0xfb, 0x07, 0xd8,
    0xf1, 0x50, 0xa5, 0x37, 0x28, 0x40, 0x50, 0xf9, 0x19, 0x6a, 0xd4, 0xbf,
    0x34, 0x38, 0xeb, 0x19, 0x07, 0x1e, 0x0e, 0x1f, 0xf2, 0x04, 0xf9, 0xaf,
    0x06, 0x24, 0xfc, 0x19, 0x23, 0x33, 0xd0, 0x0b, 0xf7, 0xea, 0xc2, 0x0e,
    0xeb, 0xf8, 0xe8, 0xfa, 0xde, 0xe7, 0xe9, 0xd0, 0x81, 0xd5, 0x29, 0xf6,
    0x11, 0x18, 0x00, 0x63, 0x0d, 0x06, 0xf1, 0x6e, 0x51, 0x2f, 0xf6, 0xee,
    0x3b, 0xd6, 0xe8, 0x0c, 0xf7, 0x0f, 0x17, 0x12, 0xf7, 0xfd, 0x05, 0x13,
    0x33, 0x26, 0xf4, 0xfa, 0x57, 0x26, 0xfc, 0x0f, 0x0d, 0x11, 0x07, 0xd3,
    0xf6, 0x05, 0xf0, 0xe3, 0xfe, 0x07, 0x09, 0x33, 0x32, 0x12, 0x0b, 0x46,
    0x23, 0x09, 0xee, 0x0c, 0x27, 0x0e, 0x4a, 0x20, 0x09, 0xea, 0x31, 0x51,
    0xf6, 0x07, 0xe7, 0x3d, 0x42, 0x3c, 0x0d, 0x23, 0x55, 0x47, 0xb9, 0x1a,
    0xf1, 0xf8, 0x0a, 0xd2, 0xdf, 0xe8, 0x0c, 0xb2, 0xd2, 0xc9, 0x14, 0x0e,
    0x35, 0x31, 0x7f, 0xd8, 0x0d, 0xde, 0x00, 0x1b, 0xd8, 0x11, 0x14, 0x09,
    0x1e, 0x23, 0xf2, 0xe3, 0xf4, 0xf3, 0x12, 0x07, 0xf6, 0x10, 0xcf, 0xfc,
    0xe9, 0x15, 0xda, 0xdc, 0xf2, 0xfc, 0xee, 0x35, 0x10, 0xe5, 0x13, 0x4d,
    0xf5, 0x22, 0xfd, 0xeb, 0x17, 0x12, 0x41, 0x2e, 0xfb, 0xe1, 0x24, 0x41,
    0x12, 0x19, 0x05, 0x43, 0x41, 0x3e, 0xef, 0xfd, 0x52, 0x42, 0xb4, 0x10,
    0x0f, 0xfd, 0xec, 0x02, 0x0a, 0xec, 0x17, 0xd2, 0xe2, 0x05, 0xf8, 0x1a,
    0x3c, 0xfb, 0x7f, 0x15, 0xeb, 0x01, 0x0f, 0x0e, 0x02, 0x02, 0x1c, 0x28,
    0x19, 0x00, 0xec, 0xed, 0xe3, 0x11, 0x0f, 0x09, 0x1b, 0xe9, 0xb5, 0xf9,
    0x15, 0x0c, 0xe7, 0xbc, 0xf0, 0x16, 0x0d, 0x39, 0x14, 0x18, 0xf0, 0xfd,
    0x46, 0x34, 0xeb, 0xff, 0xfb, 0x25, 0xb8, 0x20, 0xe4, 0xe3, 0xda, 0x24,
    0x0d, 0xe4, 0xf0, 0x0b, 0x17, 0xfc, 0x14, 0xc4, 0xb7, 0x07, 0x56, 0x09,
    0x17, 0xe5, 0xf4, 0x7f, 0xea, 0xfb, 0xe3, 0x59, 0x67, 0x3b, 0xfa, 0xe7,
    0x33, 0xd1, 0xde, 0xf6, 0x1f, 0x08, 0x15, 0x13, 0xd5, 0xe6, 0xf6, 0x1c,
    0x2e, 0x2b, 0x16, 0x03, 0x66, 0x2d, 0xf2, 0x04, 0x17, 0xf7, 0xff, 0xec,
    0xec, 0x07, 0x0f, 0xe6, 0x15, 0x08, 0x24, 0xa6, 0xfe, 0xd9, 0xd8, 0xd6,
    0xa6, 0xb6, 0xdf, 0x12, 0x0a, 0xa1, 0x22, 0xeb, 0x23, 0x28, 0x38, 0xbe,
    0x02, 0xd8, 0xf5, 0xbc, 0xc9, 0x1a, 0xf7, 0x54, 0x0e, 0x10, 0xd3, 0x34,
    0xf8, 0x1a, 0x17, 0xca, 0x19, 0xea, 0x23, 0xb5, 0xc8, 0xd0, 0x15, 0x22,
    0x86, 0x30, 0xcc, 0x39, 0x0e, 0x47, 0x1e, 0xe0, 0x49, 0xe6, 0x26, 0xc7,
    0xbe, 0xe1, 0x06, 0xf1, 0xb0, 0xe8, 0x09, 0x30, 0x23, 0xf7, 0x72, 0x45,
    0xe0, 0xf9, 0x12, 0x7f, 0xec, 0x24, 0x0e, 0x21, 0xd8, 0x00, 0x10, 0xbb,
    0x07, 0x10, 0xfc, 0xfa, 0x23, 0x10, 0xba, 0x07, 0xe9, 0xf4, 0xb9, 0x03,
    0xfb, 0xf2, 0xf9, 0xe6, 0xec, 0xee, 0x14, 0xb3, 0x81, 0xd0, 0x2f, 0xd8,
    0xfe, 0x08, 0x0e, 0x39, 0x1b, 0xe9, 0x0d, 0x51, 0x33, 0x25, 0x05, 0x01,
    0x1c, 0xcf, 0xf8, 0x10, 0x16, 0x1f, 0x24, 0x2a, 0x00, 0x0e, 0x12, 0x0c,
    0x2b, 0x0d, 0x13, 0x1c, 0x53, 0x15, 0xf0, 0x0a, 0xf7, 0xee, 0x13, 0xd3,
    0xf1, 0xf3, 0x05, 0xf8, 0x28, 0x0e, 0x43, 0x9c, 0x42, 0xed, 0x35, 0xd1,
    0xc6, 0xa2, 0x2f, 0xf1, 0xe6, 0xbf, 0x45, 0x0c, 0xfb, 0x1b, 0x69, 0xbd,
    0x4e, 0x28, 0xda, 0xd0, 0xfa, 0x26, 0xdc, 0x40, 0xf2, 0xf5, 0x99, 0x36,
    0xce, 0x34, 0x3a, 0xa0, 0x06, 0xe0, 0xd6, 0xb4, 0x9c, 0xb0, 0xcf, 0x65,
    0x8d, 0x53, 0xf5, 0xed, 0xec, 0x40, 0xed, 0xbb, 0x24, 0xea, 0x21, 0xed,
    0xf2, 0x0f, 0xe2, 0x52, 0x81, 0xb9, 0xbe, 0x50, 0xd4, 0x1a, 0x35, 0x4a,
    0xd9, 0x15, 0x18, 0x68, 0x0a, 0xfd, 0xff, 0xff, 0x04, 0x00, 0x00, 0x00,
    0x40, 0x00, 0x00, 0x00, 0x59, 0x01, 0x00, 0x00, 0x00, 0x00, 0x00, 0x00,
    0xcb, 0xfd, 0xff, 0xff, 0x00, 0x00, 0x00, 0x00, 0x4c, 0xfe, 0xff, 0xff,
    0x26, 0x08, 0x00, 0x00, 0x65, 0x01, 0x00, 0x00, 0x23, 0x03, 0x00, 0x00,
    0x68, 0xfd, 0xff, 0xff, 0x96, 0x05, 0x00, 0x00, 0x1c, 0xff, 0xff, 0xff,
    0xed, 0x00, 0x00, 0x00, 0xd3, 0x01, 0x00, 0x00, 0x7b, 0x04, 0x00, 0x00,
    0xc8, 0x05, 0x00, 0x00, 0x00, 0x05, 0x00, 0x00, 0x56, 0xfd, 0xff, 0xff,
    0x04, 0x00, 0x00, 0x00, 0x30, 0x00, 0x00, 0x00, 0xbc, 0xf6, 0xc7, 0xe0,
    0xab, 0x52, 0x2c, 0x5d, 0xcc, 0x7e, 0x93, 0x81, 0x6e, 0xea, 0x79, 0xa5,
    0xf4, 0xff, 0xef, 0x0c, 0x0c, 0x81, 0x42, 0x4e, 0xf3, 0xe1, 0x41, 0x3f,
    0x1d, 0xe0, 0xba, 0xcc, 0x3f, 0x32, 0x34, 0xf3, 0x70, 0xd9, 0xe9, 0x81,
    0x05, 0xf6, 0xf9, 0xb4, 0xab, 0x7f, 0xf8, 0x15, 0x92, 0xfd, 0xff, 0xff,
    0x04, 0x00, 0x00, 0x00, 0x0c, 0x00, 0x00, 0x00, 0x9e, 0x00, 0x00, 0x00,
    0x2f, 0xff, 0xff, 0xff, 0xe9, 0x00, 0x00, 0x00, 0xaa, 0xfd, 0xff, 0xff,
    0x04, 0x00, 0x00, 0x00, 0x04, 0x00, 0x00, 0x00, 0x40, 0x00, 0x00, 0x00,
    0x6c, 0xe6, 0xff, 0xff, 0xbe, 0xfd, 0xff, 0xff, 0x04, 0x00, 0x00, 0x00,
    0x04, 0x00, 0x00, 0x00, 0x00, 0x00, 0x00, 0x00, 0xce, 0xfd, 0xff, 0xff,
    0x04, 0x00, 0x00, 0x00, 0x0c, 0x00, 0x00, 0x00, 0xff, 0xff, 0xff, 0xff,
    0x04, 0x00, 0x00, 0x00, 0x10, 0x00, 0x00, 0x00, 0xe6, 0xfd, 0xff, 0xff,
    0x04, 0x00, 0x00, 0x00, 0x04, 0x00, 0x00, 0x00, 0x01, 0x00, 0x00, 0x00,
    0xf6, 0xfd, 0xff, 0xff, 0x04, 0x00, 0x00, 0x00, 0x0c, 0x00, 0x00, 0x00,
    0xff, 0xff, 0xff, 0xff, 0x08, 0x00, 0x00, 0x00, 0x10, 0x00, 0x00, 0x00,
    0x0e, 0xfe, 0xff, 0xff, 0x04, 0x00, 0x00, 0x00, 0x04, 0x00, 0x00, 0x00,
    0xfd, 0xff, 0xff, 0xff, 0xd0, 0xe6, 0xff, 0xff, 0xd4, 0xe6, 0xff, 0xff,
    0xd8, 0xe6, 0xff, 0xff, 0x0f, 0x00, 0x00, 0x00, 0x4d, 0x4c, 0x49, 0x52,
    0x20, 0x43, 0x6f, 0x6e, 0x76, 0x65, 0x72, 0x74, 0x65, 0x64, 0x2e, 0x00,
    0x01, 0x00, 0x00, 0x00, 0x14, 0x00, 0x00, 0x00, 0x00, 0x00, 0x0e, 0x00,
    0x18, 0x00, 0x14, 0x00, 0x10, 0x00, 0x0c, 0x00, 0x08, 0x00, 0x04, 0x00,
    0x0e, 0x00, 0x00, 0x00, 0x14, 0x00, 0x00, 0x00, 0x1c, 0x00, 0x00, 0x00,
    0xbc, 0x03, 0x00, 0x00, 0xc0, 0x03, 0x00, 0x00, 0xc8, 0x03, 0x00, 0x00,
    0x04, 0x00, 0x00, 0x00, 0x6d, 0x61, 0x69, 0x6e, 0x00, 0x00, 0x00, 0x00,
    0x0f, 0x00, 0x00, 0x00, 0x74, 0x03, 0x00, 0x00, 0x14, 0x03, 0x00, 0x00,
    0xdc, 0x02, 0x00, 0x00, 0xa0, 0x02, 0x00, 0x00, 0x4c, 0x02, 0x00, 0x00,
    0x14, 0x02, 0x00, 0x00, 0xd8, 0x01, 0x00, 0x00, 0x88, 0x01, 0x00, 0x00,
    0x48, 0x01, 0x00, 0x00, 0x20, 0x01, 0x00, 0x00, 0xe4, 0x00, 0x00, 0x00,
    0xac, 0x00, 0x00, 0x00, 0x70, 0x00, 0x00, 0x00, 0x38, 0x00, 0x00, 0x00,
    0x04, 0x00, 0x00, 0x00, 0x32, 0xfd, 0xff, 0xff, 0x14, 0x00, 0x00, 0x00,
    0x00, 0x00, 0x00, 0x09, 0x14, 0x00, 0x00, 0x00, 0x18, 0x00, 0x00, 0x00,
    0x09, 0x00, 0x00, 0x00, 0xd2, 0xfe, 0xff, 0xff, 0x00, 0x00, 0x80, 0x3f,
    0x01, 0x00, 0x00, 0x00, 0x1f, 0x00, 0x00, 0x00, 0x01, 0x00, 0x00, 0x00,
    0x1e, 0x00, 0x00, 0x00, 0x62, 0xfd, 0xff, 0xff, 0x14, 0x00, 0x00, 0x00,
    0x00, 0x00, 0x00, 0x08, 0x10, 0x00, 0x00, 0x00, 0x14, 0x00, 0x00, 0x00,
    0x07, 0x00, 0x00, 0x00, 0xb4, 0xe7, 0xff, 0xff, 0x01, 0x00, 0x00, 0x00,
    0x1e, 0x00, 0x00, 0x00, 0x03, 0x00, 0x00, 0x00, 0x1d, 0x00, 0x00, 0x00,
    0x0a, 0x00, 0x00, 0x00, 0x09, 0x00, 0x00, 0x00, 0x96, 0xfd, 0xff, 0xff,
    0x14, 0x00, 0x00, 0x00, 0x00, 0x00, 0x00, 0x08, 0x14, 0x00, 0x00, 0x00,
    0x18, 0x00, 0x00, 0x00, 0x07, 0x00, 0x00, 0x00, 0xae, 0xfe, 0xff, 0xff,
    0x00, 0x00, 0x00, 0x01, 0x01, 0x00, 0x00, 0x00, 0x1d, 0x00, 0x00, 0x00,
    0x03, 0x00, 0x00, 0x00, 0x1c, 0x00, 0x00, 0x00, 0x0c, 0x00, 0x00, 0x00,
    0x0b, 0x00, 0x00, 0x00, 0xce, 0xfd, 0xff, 0xff, 0x14, 0x00, 0x00, 0x00,
    0x00, 0x00, 0x00, 0x0a, 0x14, 0x00, 0x00, 0x00, 0x18, 0x00, 0x00, 0x00,
    0x08, 0x00, 0x00, 0x00, 0x6e, 0xff, 0xff, 0xff, 0xff, 0xff, 0xff, 0xff,
    0x01, 0x00, 0x00, 0x00, 0x1c, 0x00, 0x00, 0x00, 0x02, 0x00, 0x00, 0x00,
    0x1a, 0x00, 0x00, 0x00, 0x1b, 0x00, 0x00, 0x00, 0x02, 0xfe, 0xff, 0xff,
    0x14, 0x00, 0x00, 0x00, 0x00, 0x00, 0x00, 0x08, 0x14, 0x00, 0x00, 0x00,
    0x18, 0x00, 0x00, 0x00, 0x07, 0x00, 0x00, 0x00, 0x1a, 0xff, 0xff, 0xff,
    0x00, 0x00, 0x00, 0x01, 0x01, 0x00, 0x00, 0x00, 0x1b, 0x00, 0x00, 0x00,
    0x03, 0x00, 0x00, 0x00, 0x00, 0x00, 0x00, 0x00, 0x0e, 0x00, 0x00, 0x00,
    0x0d, 0x00, 0x00, 0x00, 0x6a, 0xfe, 0xff, 0xff, 0x0c, 0x00, 0x00, 0x00,
    0x10, 0x00, 0x00, 0x00, 0x02, 0x00, 0x00, 0x00, 0x01, 0x00, 0x00, 0x00,
    0x1a, 0x00, 0x00, 0x00, 0x02, 0x00, 0x00, 0x00, 0x15, 0x00, 0x00, 0x00,
    0x19, 0x00, 0x00, 0x00, 0x1a, 0xff, 0xff, 0xff, 0x1c, 0x00, 0x00, 0x00,
    0x00, 0x00, 0x00, 0x3b, 0x1c, 0x00, 0x00, 0x00, 0x20, 0x00, 0x00, 0x00,
    0x06, 0x00, 0x00, 0x00, 0x00, 0x00, 0x06, 0x00, 0x08, 0x00, 0x04, 0x00,
    0x06, 0x00, 0x00, 0x00, 0x02, 0x00, 0x00, 0x00, 0x01, 0x00, 0x00, 0x00,
    0x19, 0x00, 0x00, 0x00, 0x02, 0x00, 0x00, 0x00, 0x18, 0x00, 0x00, 0x00,
    0x08, 0x00, 0x00, 0x00, 0x56, 0xff, 0xff, 0xff, 0x24, 0x00, 0x00, 0x00,
    0x00, 0x00, 0x00, 0x20, 0x24, 0x00, 0x00, 0x00, 0x28, 0x00, 0x00, 0x00,
    0x05, 0x00, 0x00, 0x00, 0x00, 0x00, 0x0e, 0x00, 0x08, 0x00, 0x00, 0x00,
    0x00, 0x00, 0x00, 0x00, 0x00, 0x00, 0x04, 0x00, 0x0e, 0x00, 0x00, 0x00,
    0x01, 0x00, 0x00, 0x00, 0x01, 0x00, 0x00, 0x00, 0x18, 0x00, 0x00, 0x00,
    0x04, 0x00, 0x00, 0x00, 0x17, 0x00, 0x00, 0x00, 0x06, 0x00, 0x00, 0x00,
    0x07, 0x00, 0x00, 0x00, 0x07, 0x00, 0x00, 0x00, 0xa2, 0xff, 0xff, 0xff,
    0x1c, 0x00, 0x00, 0x00, 0x00, 0x00, 0x00, 0x37, 0x1c, 0x00, 0x00, 0x00,
    0x20, 0x00, 0x00, 0x00, 0x04, 0x00, 0x00, 0x00, 0x00, 0x00, 0x06, 0x00,
    0x08, 0x00, 0x07, 0x00, 0x06, 0x00, 0x00, 0x00, 0x00, 0x00, 0x00, 0x02,
    0x01, 0x00, 0x00, 0x00, 0x17, 0x00, 0x00, 0x00, 0x01, 0x00, 0x00, 0x00,
    0x16, 0x00, 0x00, 0x00, 0x4e, 0xff, 0xff, 0xff, 0x0c, 0x00, 0x00, 0x00,
    0x10, 0x00, 0x00, 0x00, 0x02, 0x00, 0x00, 0x00, 0x01, 0x00, 0x00, 0x00,
    0x16, 0x00, 0x00, 0x00, 0x02, 0x00, 0x00, 0x00, 0x15, 0x00, 0x00, 0x00,
    0x05, 0x00, 0x00, 0x00, 0x00, 0x00, 0x0e, 0x00, 0x1a, 0x00, 0x14, 0x00,
    0x10, 0x00, 0x0c, 0x00, 0x0b, 0x00, 0x04, 0x00, 0x0e, 0x00, 0x00, 0x00,
    0x24, 0x00, 0x00, 0x00, 0x00, 0x00, 0x00, 0x05, 0x34, 0x00, 0x00, 0x00,
    0x38, 0x00, 0x00, 0x00, 0x03, 0x00, 0x00, 0x00, 0x00, 0x00, 0x0e, 0x00,
    0x18, 0x00, 0x17, 0x00, 0x10, 0x00, 0x0c, 0x00, 0x08, 0x00, 0x04, 0x00,
    0x0e, 0x00, 0x00, 0x00, 0x01, 0x00, 0x00, 0x00, 0x02, 0x00, 0x00, 0x00,
    0x01, 0x00, 0x00, 0x00, 0x02, 0x00, 0x00, 0x00, 0x00, 0x00, 0x00, 0x01,
    0x01, 0x00, 0x00, 0x00, 0x15, 0x00, 0x00, 0x00, 0x01, 0x00, 0x00, 0x00,
    0x14, 0x00, 0x00, 0x00, 0x46, 0xff, 0xff, 0xff, 0x10, 0x00, 0x00, 0x00,
    0x00, 0x00, 0x00, 0x34, 0x0c, 0x00, 0x00, 0x00, 0x10, 0x00, 0x00, 0x00,
    0xf0, 0xe9, 0xff, 0xff, 0x01, 0x00, 0x00, 0x00, 0x14, 0x00, 0x00, 0x00,
    0x02, 0x00, 0x00, 0x00, 0x13, 0x00, 0x00, 0x00, 0x04, 0x00, 0x00, 0x00,
    0x00, 0x00, 0x0a, 0x00, 0x10, 0x00, 0x0c, 0x00, 0x08, 0x00, 0x04, 0x00,
    0x0a, 0x00, 0x00, 0x00, 0x0c, 0x00, 0x00, 0x00, 0x10, 0x00, 0x00, 0x00,
    0x02, 0x00, 0x00, 0x00, 0x01, 0x00, 0x00, 0x00, 0x13, 0x00, 0x00, 0x00,
    0x02, 0x00, 0x00, 0x00, 0x12, 0x00, 0x00, 0x00, 0x03, 0x00, 0x00, 0x00,
    0x00, 0x00, 0x0e, 0x00, 0x18, 0x00, 0x14, 0x00, 0x10, 0x00, 0x0c, 0x00,
    0x0b, 0x00, 0x04, 0x00, 0x0e, 0x00, 0x00, 0x00, 0x20, 0x00, 0x00, 0x00,
    0x00, 0x00, 0x00, 0x01, 0x28, 0x00, 0x00, 0x00, 0x2c, 0x00, 0x00, 0x00,
    0x01, 0x00, 0x00, 0x00, 0x0c, 0x00, 0x10, 0x00, 0x00, 0x00, 0x0c, 0x00,
    0x08, 0x00, 0x07, 0x00, 0x0c, 0x00, 0x00, 0x00, 0x00, 0x00, 0x00, 0x01,
    0x01, 0x00, 0x00, 0x00, 0x01, 0x00, 0x00, 0x00, 0x01, 0x00, 0x00, 0x00,
    0x12, 0x00, 0x00, 0x00, 0x03, 0x00, 0x00, 0x00, 0x11, 0x00, 0x00, 0x00,
    0x10, 0x00, 0x00, 0x00, 0x0f, 0x00, 0x00, 0x00, 0x00, 0x00, 0x0e, 0x00,
    0x14, 0x00, 0x00, 0x00, 0x10, 0x00, 0x0c, 0x00, 0x0b, 0x00, 0x04, 0x00,
    0x0e, 0x00, 0x00, 0x00, 0x10, 0x00, 0x00, 0x00, 0x00, 0x00, 0x00, 0x34,
    0x0c, 0x00, 0x00, 0x00, 0x10, 0x00, 0x00, 0x00, 0xb8, 0xea, 0xff, 0xff,
    0x01, 0x00, 0x00, 0x00, 0x11, 0x00, 0x00, 0x00, 0x02, 0x00, 0x00, 0x00,
    0x01, 0x00, 0x00, 0x00, 0x02, 0x00, 0x00, 0x00, 0x01, 0x00, 0x00, 0x00,
    0x1f, 0x00, 0x00, 0x00, 0x02, 0x00, 0x00, 0x00, 0x00, 0x00, 0x00, 0x00,
    0x01, 0x00, 0x00, 0x00, 0x20, 0x00, 0x00, 0x00, 0xfc, 0x15, 0x00, 0x00,
    0x60, 0x15, 0x00, 0x00, 0xf4, 0x14, 0x00, 0x00, 0x78, 0x14, 0x00, 0x00,
    0x10, 0x14, 0x00, 0x00, 0xac, 0x13, 0x00, 0x00, 0x44, 0x13, 0x00, 0x00,
    0x04, 0x13, 0x00, 0x00, 0xa4, 0x12, 0x00, 0x00, 0x14, 0x12, 0x00, 0x00,
    0x80, 0x11, 0x00, 0x00, 0x24, 0x10, 0x00, 0x00, 0xf0, 0x0e, 0x00, 0x00,
    0xf4, 0x0d, 0x00, 0x00, 0x20, 0x0d, 0x00, 0x00, 0x54, 0x0b, 0x00, 0x00,
    0x18, 0x0a, 0x00, 0x00, 0x6c, 0x09, 0x00, 0x00, 0x30, 0x08, 0x00, 0x00,
    0x20, 0x07, 0x00, 0x00, 0x78, 0x06, 0x00, 0x00, 0xdc, 0x05, 0x00, 0x00,
    0x3c, 0x05, 0x00, 0x00, 0xe0, 0x04, 0x00, 0x00, 0x80, 0x04, 0x00, 0x00,
    0x1c, 0x04, 0x00, 0x00, 0x90, 0x03, 0x00, 0x00, 0xa4, 0x02, 0x00, 0x00,
    0x10, 0x02, 0x00, 0x00, 0x2c, 0x01, 0x00, 0x00, 0x80, 0x00, 0x00, 0x00,
    0x04, 0x00, 0x00, 0x00, 0x9a, 0xea, 0xff, 0xff, 0x00, 0x00, 0x00, 0x01,
    0x18, 0x00, 0x00, 0x00, 0x20, 0x00, 0x00, 0x00, 0x3c, 0x00, 0x00, 0x00,
    0x20, 0x00, 0x00, 0x00, 0x00, 0x00, 0x00, 0x09, 0x50, 0x00, 0x00, 0x00,
    0x02, 0x00, 0x00, 0x00, 0xff, 0xff, 0xff, 0xff, 0x03, 0x00, 0x00, 0x00,
    0x84, 0xea, 0xff, 0xff, 0x08, 0x00, 0x00, 0x00, 0x10, 0x00, 0x00, 0x00,
    0x01, 0x00, 0x00, 0x00, 0x80, 0xff, 0xff, 0xff, 0xff, 0xff, 0xff, 0xff,
    0x01, 0x00, 0x00, 0x00, 0x00, 0x00, 0x80, 0x3b, 0x1b, 0x00, 0x00, 0x00,
    0x53, 0x74, 0x61, 0x74, 0x65, 0x66, 0x75, 0x6c, 0x50, 0x61, 0x72, 0x74,
    0x69, 0x74, 0x69, 0x6f, 0x6e, 0x65, 0x64, 0x43, 0x61, 0x6c, 0x6c, 0x5f,
    0x31, 0x3a, 0x30, 0x00, 0x02, 0x00, 0x00, 0x00, 0x01, 0x00, 0x00, 0x00,
    0x03, 0x00, 0x00, 0x00, 0x12, 0xeb, 0xff, 0xff, 0x00, 0x00, 0x00, 0x01,
    0x18, 0x00, 0x00, 0x00, 0x20, 0x00, 0x00, 0x00, 0x3c, 0x00, 0x00, 0x00,
    0x1f, 0x00, 0x00, 0x00, 0x00, 0x00, 0x00, 0x09, 0x80, 0x00, 0x00, 0x00,
    0x02, 0x00, 0x00, 0x00, 0xff, 0xff, 0xff, 0xff, 0x03, 0x00, 0x00, 0x00,
    0xfc, 0xea, 0xff, 0xff, 0x08, 0x00, 0x00, 0x00, 0x10, 0x00, 0x00, 0x00,
    0x01, 0x00, 0x00, 0x00, 0xfa, 0xff, 0xff, 0xff, 0xff, 0xff, 0xff, 0xff,
    0x01, 0x00, 0x00, 0x00, 0x5f, 0x0b, 0x11, 0x3e, 0x4a, 0x00, 0x00, 0x00,
    0x63, 0x6e, 0x6e, 0x5f, 0x64, 0x75, 0x61, 0x6c, 0x62, 0x72, 0x61, 0x6e,
    0x63, 0x68, 0x5f, 0x67, 0x61, 0x73, 0x5f, 0x31, 0x2f, 0x6f, 0x75, 0x74,
    0x70, 0x75, 0x74, 0x5f, 0x31, 0x2f, 0x4d, 0x61, 0x74, 0x4d, 0x75, 0x6c,
    0x3b, 0x63, 0x6e, 0x6e, 0x5f, 0x64, 0x75, 0x61, 0x6c, 0x62, 0x72, 0x61,
    0x6e, 0x63, 0x68, 0x5f, 0x67, 0x61, 0x73, 0x5f, 0x31, 0x2f, 0x6f, 0x75,
    0x74, 0x70, 0x75, 0x74, 0x5f, 0x31, 0x2f, 0x42, 0x69, 0x61, 0x73, 0x41,
    0x64, 0x64, 0x00, 0x00, 0x02, 0x00, 0x00, 0x00, 0x01, 0x00, 0x00, 0x00,
    0x03, 0x00, 0x00, 0x00, 0xba, 0xeb, 0xff, 0xff, 0x00, 0x00, 0x00, 0x01,
    0x18, 0x00, 0x00, 0x00, 0x20, 0x00, 0x00, 0x00, 0x40, 0x00, 0x00, 0x00,
    0x1e, 0x00, 0x00, 0x00, 0x00, 0x00, 0x00, 0x09, 0xb8, 0x00, 0x00, 0x00,
    0x02, 0x00, 0x00, 0x00, 0xff, 0xff, 0xff, 0xff, 0x10, 0x00, 0x00, 0x00,
    0xa4, 0xeb, 0xff, 0xff, 0x08, 0x00, 0x00, 0x00, 0x14, 0x00, 0x00, 0x00,
    0x01, 0x00, 0x00, 0x00, 0x80, 0xff, 0xff, 0xff, 0xff, 0xff, 0xff, 0xff,
    0x00, 0x00, 0x00, 0x00, 0x01, 0x00, 0x00, 0x00, 0x39, 0xd7, 0x09, 0x3d,
    0x7f, 0x00, 0x00, 0x00, 0x63, 0x6e, 0x6e, 0x5f, 0x64, 0x75, 0x61, 0x6c,
    0x62, 0x72, 0x61, 0x6e, 0x63, 0x68, 0x5f, 0x67, 0x61, 0x73, 0x5f, 0x31,
    0x2f, 0x64, 0x65, 0x6e, 0x73, 0x65, 0x5f, 0x6d, 0x65, 0x72, 0x67, 0x65,
    0x64, 0x5f, 0x31, 0x2f, 0x4d, 0x61, 0x74, 0x4d, 0x75, 0x6c, 0x3b, 0x63,
    0x6e, 0x6e, 0x5f, 0x64, 0x75, 0x61, 0x6c, 0x62, 0x72, 0x61, 0x6e, 0x63,
    0x68, 0x5f, 0x67, 0x61, 0x73, 0x5f, 0x31, 0x2f, 0x64, 0x65, 0x6e, 0x73,
    0x65, 0x5f, 0x6d, 0x65, 0x72, 0x67, 0x65, 0x64, 0x5f, 0x31, 0x2f, 0x52,
    0x65, 0x6c, 0x75, 0x3b, 0x63, 0x6e, 0x6e, 0x5f, 0x64, 0x75, 0x61, 0x6c,
    0x62, 0x72, 0x61, 0x6e, 0x63, 0x68, 0x5f, 0x67, 0x61, 0x73, 0x5f, 0x31,
    0x2f, 0x64, 0x65, 0x6e, 0x73, 0x65, 0x5f, 0x6d, 0x65, 0x72, 0x67, 0x65,
    0x64, 0x5f, 0x31, 0x2f, 0x42, 0x69, 0x61, 0x73, 0x41, 0x64, 0x64, 0x00,
    0x02, 0x00, 0x00, 0x00, 0x01, 0x00, 0x00, 0x00, 0x10, 0x00, 0x00, 0x00,
    0x9a, 0xec, 0xff, 0xff, 0x00, 0x00, 0x00, 0x01, 0x18, 0x00, 0x00, 0x00,
    0x20, 0x00, 0x00, 0x00, 0x40, 0x00, 0x00, 0x00, 0x1d, 0x00, 0x00, 0x00,
    0x00, 0x00, 0x00, 0x09, 0x68, 0x00, 0x00, 0x00, 0x02, 0x00, 0x00, 0x00,
    0xff, 0xff, 0xff, 0xff, 0x48, 0x00, 0x00, 0x00, 0x84, 0xec, 0xff, 0xff,
    0x08, 0x00, 0x00, 0x00, 0x14, 0x00, 0x00, 0x00, 0x01, 0x00, 0x00, 0x00,
    0x80, 0xff, 0xff, 0xff, 0xff, 0xff, 0xff, 0xff, 0x00, 0x00, 0x00, 0x00,
    0x01, 0x00, 0x00, 0x00, 0x6f, 0x27, 0x42, 0x3c, 0x2d, 0x00, 0x00, 0x00,
    0x63, 0x6e, 0x6e, 0x5f, 0x64, 0x75, 0x61, 0x6c, 0x62, 0x72, 0x61, 0x6e,
    0x63, 0x68, 0x5f, 0x67, 0x61, 0x73, 0x5f, 0x31, 0x2f, 0x63, 0x6f, 0x6e,
    0x63, 0x61, 0x74, 0x5f, 0x62, 0x72, 0x61, 0x6e, 0x63, 0x68, 0x65, 0x73,
    0x5f, 0x31, 0x2f, 0x63, 0x6f, 0x6e, 0x63, 0x61, 0x74, 0x00, 0x00, 0x00,
    0x02, 0x00, 0x00, 0x00, 0x01, 0x00, 0x00, 0x00, 0x48, 0x00, 0x00, 0x00,
    0x2a, 0xed, 0xff, 0xff, 0x00, 0x00, 0x00, 0x01, 0x18, 0x00, 0x00, 0x00,
    0x20, 0x00, 0x00, 0x00, 0x40, 0x00, 0x00, 0x00, 0x1c, 0x00, 0x00, 0x00,
    0x00, 0x00, 0x00, 0x09, 0xc0, 0x00, 0x00, 0x00, 0x02, 0x00, 0x00, 0x00,
    0xff, 0xff, 0xff, 0xff, 0x08, 0x00, 0x00, 0x00, 0x14, 0xed, 0xff, 0xff,
    0x08, 0x00, 0x00, 0x00, 0x14, 0x00, 0x00, 0x00, 0x01, 0x00, 0x00, 0x00,
    0x80, 0xff, 0xff, 0xff, 0xff, 0xff, 0xff, 0xff, 0x00, 0x00, 0x00, 0x00,
    0x01, 0x00, 0x00, 0x00, 0x6f, 0x27, 0x42, 0x3c, 0x85, 0x00, 0x00, 0x00,
    0x63, 0x6e, 0x6e, 0x5f, 0x64, 0x75, 0x61, 0x6c, 0x62, 0x72, 0x61, 0x6e,
    0x63, 0x68, 0x5f, 0x67, 0x61, 0x73, 0x5f, 0x31, 0x2f, 0x64, 0x65, 0x6e,
    0x73, 0x65, 0x5f, 0x65, 0x76, 0x69, 0x64, 0x65, 0x6e, 0x63, 0x65, 0x5f,
    0x31, 0x2f, 0x4d, 0x61, 0x74, 0x4d, 0x75, 0x6c, 0x3b, 0x63, 0x6e, 0x6e,
    0x5f, 0x64, 0x75, 0x61, 0x6c, 0x62, 0x72, 0x61, 0x6e, 0x63, 0x68, 0x5f,
    0x67, 0x61, 0x73, 0x5f, 0x31, 0x2f, 0x64, 0x65, 0x6e, 0x73, 0x65, 0x5f,
    0x65, 0x76, 0x69, 0x64, 0x65, 0x6e, 0x63, 0x65, 0x5f, 0x31, 0x2f, 0x52,
    0x65, 0x6c, 0x75, 0x3b, 0x63, 0x6e, 0x6e, 0x5f, 0x64, 0x75, 0x61, 0x6c,
    0x62, 0x72, 0x61, 0x6e, 0x63, 0x68, 0x5f, 0x67, 0x61, 0x73, 0x5f, 0x31,
    0x2f, 0x64, 0x65, 0x6e, 0x73, 0x65, 0x5f, 0x65, 0x76, 0x69, 0x64, 0x65,
    0x6e, 0x63, 0x65, 0x5f, 0x31, 0x2f, 0x42, 0x69, 0x61, 0x73, 0x41, 0x64,
    0x64, 0x00, 0x00, 0x00, 0x02, 0x00, 0x00, 0x00, 0x01, 0x00, 0x00, 0x00,
    0x08, 0x00, 0x00, 0x00, 0x12, 0xee, 0xff, 0xff, 0x00, 0x00, 0x00, 0x01,
    0x18, 0x00, 0x00, 0x00, 0x20, 0x00, 0x00, 0x00, 0x3c, 0x00, 0x00, 0x00,
    0x1b, 0x00, 0x00, 0x00, 0x00, 0x00, 0x00, 0x09, 0x60, 0x00, 0x00, 0x00,
    0x02, 0x00, 0x00, 0x00, 0xff, 0xff, 0xff, 0xff, 0x40, 0x00, 0x00, 0x00,
    0xfc, 0xed, 0xff, 0xff, 0x08, 0x00, 0x00, 0x00, 0x10, 0x00, 0x00, 0x00,
    0x01, 0x00, 0x00, 0x00, 0x80, 0xff, 0xff, 0xff, 0xff, 0xff, 0xff, 0xff,
    0x01, 0x00, 0x00, 0x00, 0x6f, 0x27, 0x42, 0x3c, 0x2a, 0x00, 0x00, 0x00,
    0x63, 0x6e, 0x6e, 0x5f, 0x64, 0x75, 0x61, 0x6c, 0x62, 0x72, 0x61, 0x6e,
    0x63, 0x68, 0x5f, 0x67, 0x61, 0x73, 0x5f, 0x31, 0x2f, 0x66, 0x6c, 0x61,
    0x74, 0x74, 0x65, 0x6e, 0x5f, 0x61, 0x64, 0x63, 0x5f, 0x31, 0x2f, 0x52,
    0x65, 0x73, 0x68, 0x61, 0x70, 0x65, 0x00, 0x00, 0x02, 0x00, 0x00, 0x00,
    0x01, 0x00, 0x00, 0x00, 0x40, 0x00, 0x00, 0x00, 0x9a, 0xef, 0xff, 0xff,
    0x00, 0x00, 0x00, 0x01, 0x14, 0x00, 0x00, 0x00, 0x14, 0x00, 0x00, 0x00,
    0x1a, 0x00, 0x00, 0x00, 0x00, 0x00, 0x00, 0x02, 0x40, 0x00, 0x00, 0x00,
    0x84, 0xef, 0xff, 0xff, 0x30, 0x00, 0x00, 0x00, 0x63, 0x6e, 0x6e, 0x5f,
    0x64, 0x75, 0x61, 0x6c, 0x62, 0x72, 0x61, 0x6e, 0x63, 0x68, 0x5f, 0x67,
    0x61, 0x73, 0x5f, 0x31, 0x2f, 0x66, 0x6c, 0x61, 0x74, 0x74, 0x65, 0x6e,
    0x5f, 0x61, 0x64, 0x63, 0x5f, 0x31, 0x2f, 0x52, 0x65, 0x73, 0x68, 0x61,
    0x70, 0x65, 0x2f, 0x73, 0x68, 0x61, 0x70, 0x65, 0x00, 0x00, 0x00, 0x00,
    0x01, 0x00, 0x00, 0x00, 0x02, 0x00, 0x00, 0x00, 0xfa, 0xef, 0xff, 0xff,
    0x00, 0x00, 0x00, 0x01, 0x14, 0x00, 0x00, 0x00, 0x14, 0x00, 0x00, 0x00,
    0x19, 0x00, 0x00, 0x00, 0x00, 0x00, 0x00, 0x02, 0x40, 0x00, 0x00, 0x00,
    0xe4, 0xef, 0xff, 0xff, 0x30, 0x00, 0x00, 0x00, 0x63, 0x6e, 0x6e, 0x5f,
    0x64, 0x75, 0x61, 0x6c, 0x62, 0x72, 0x61, 0x6e, 0x63, 0x68, 0x5f, 0x67,
    0x61, 0x73, 0x5f, 0x31, 0x2f, 0x66, 0x6c, 0x61, 0x74, 0x74, 0x65, 0x6e,
    0x5f, 0x61, 0x64, 0x63, 0x5f, 0x31, 0x2f, 0x73, 0x74, 0x72, 0x69, 0x64,
    0x65, 0x64, 0x5f, 0x73, 0x6c, 0x69, 0x63, 0x65, 0x00, 0x00, 0x00, 0x00,
    0x00, 0x00, 0x00, 0x00, 0x56, 0xf0, 0xff, 0xff, 0x00, 0x00, 0x00, 0x01,
    0x14, 0x00, 0x00, 0x00, 0x14, 0x00, 0x00, 0x00, 0x18, 0x00, 0x00, 0x00,
    0x00, 0x00, 0x00, 0x02, 0x38, 0x00, 0x00, 0x00, 0x40, 0xf0, 0xff, 0xff,
    0x28, 0x00, 0x00, 0x00, 0x63, 0x6e, 0x6e, 0x5f, 0x64, 0x75, 0x61, 0x6c,
    0x62, 0x72, 0x61, 0x6e, 0x63, 0x68, 0x5f, 0x67, 0x61, 0x73, 0x5f, 0x31,
    0x2f, 0x66, 0x6c, 0x61, 0x74, 0x74, 0x65, 0x6e, 0x5f, 0x61, 0x64, 0x63,
    0x5f, 0x31, 0x2f, 0x53, 0x68, 0x61, 0x70, 0x65, 0x00, 0x00, 0x00, 0x00,
    0x01, 0x00, 0x00, 0x00, 0x03, 0x00, 0x00, 0x00, 0xae, 0xef, 0xff, 0xff,
    0x00, 0x00, 0x00, 0x01, 0x18, 0x00, 0x00, 0x00, 0x24, 0x00, 0x00, 0x00,
    0x44, 0x00, 0x00, 0x00, 0x17, 0x00, 0x00, 0x00, 0x00, 0x00, 0x00, 0x09,
    0x70, 0x00, 0x00, 0x00, 0x03, 0x00, 0x00, 0x00, 0xff, 0xff, 0xff, 0xff,
    0x04, 0x00, 0x00, 0x00, 0x10, 0x00, 0x00, 0x00, 0x9c, 0xef, 0xff, 0xff,
    0x08, 0x00, 0x00, 0x00, 0x14, 0x00, 0x00, 0x00, 0x01, 0x00, 0x00, 0x00,
    0x80, 0xff, 0xff, 0xff, 0xff, 0xff, 0xff, 0xff, 0x00, 0x00, 0x00, 0x00,
    0x01, 0x00, 0x00, 0x00, 0x6f, 0x27, 0x42, 0x3c, 0x33, 0x00, 0x00, 0x00,
    0x63, 0x6e, 0x6e, 0x5f, 0x64, 0x75, 0x61, 0x6c, 0x62, 0x72, 0x61, 0x6e,
    0x63, 0x68, 0x5f, 0x67, 0x61, 0x73, 0x5f, 0x31, 0x2f, 0x6d, 0x61, 0x78,
    0x70, 0x6f, 0x6f, 0x6c, 0x31, 0x64, 0x5f, 0x31, 0x2f, 0x4d, 0x61, 0x78,
    0x50, 0x6f, 0x6f, 0x6c, 0x31, 0x64, 0x2f, 0x53, 0x71, 0x75, 0x65, 0x65,
    0x7a, 0x65, 0x31, 0x00, 0x03, 0x00, 0x00, 0x00, 0x01, 0x00, 0x00, 0x00,
    0x04, 0x00, 0x00, 0x00, 0x10, 0x00, 0x00, 0x00, 0x4a, 0xf0, 0xff, 0xff,
    0x00, 0x00, 0x00, 0x01, 0x18, 0x00, 0x00, 0x00, 0x28, 0x00, 0x00, 0x00,
    0x44, 0x00, 0x00, 0x00, 0x16, 0x00, 0x00, 0x00, 0x00, 0x00, 0x00, 0x09,
    0x68, 0x00, 0x00, 0x00, 0x04, 0x00, 0x00, 0x00, 0xff, 0xff, 0xff, 0xff,
    0x01, 0x00, 0x00, 0x00, 0x04, 0x00, 0x00, 0x00, 0x10, 0x00, 0x00, 0x00,
    0x3c, 0xf0, 0xff, 0xff, 0x08, 0x00, 0x00, 0x00, 0x10, 0x00, 0x00, 0x00,
    0x01, 0x00, 0x00, 0x00, 0x80, 0xff, 0xff, 0xff, 0xff, 0xff, 0xff, 0xff,
    0x01, 0x00, 0x00, 0x00, 0x6f, 0x27, 0x42, 0x3c, 0x2a, 0x00, 0x00, 0x00,
    0x63, 0x6e, 0x6e, 0x5f, 0x64, 0x75, 0x61, 0x6c, 0x62, 0x72, 0x61, 0x6e,
    0x63, 0x68, 0x5f, 0x67, 0x61, 0x73, 0x5f, 0x31, 0x2f, 0x6d, 0x61, 0x78,
    0x70, 0x6f, 0x6f, 0x6c, 0x31, 0x64, 0x5f, 0x31, 0x2f, 0x4d, 0x61, 0x78,
    0x50, 0x6f, 0x6f, 0x6c, 0x31, 0x64, 0x00, 0x00, 0x04, 0x00, 0x00, 0x00,
    0x01, 0x00, 0x00, 0x00, 0x01, 0x00, 0x00, 0x00, 0x04, 0x00, 0x00, 0x00,
    0x10, 0x00, 0x00, 0x00, 0xe2, 0xf0, 0xff, 0xff, 0x00, 0x00, 0x00, 0x01,
    0x18, 0x00, 0x00, 0x00, 0x28, 0x00, 0x00, 0x00, 0x44, 0x00, 0x00, 0x00,
    0x15, 0x00, 0x00, 0x00, 0x00, 0x00, 0x00, 0x09, 0x74, 0x00, 0x00, 0x00,
    0x04, 0x00, 0x00, 0x00, 0xff, 0xff, 0xff, 0xff, 0x01, 0x00, 0x00, 0x00,
    0x08, 0x00, 0x00, 0x00, 0x10, 0x00, 0x00, 0x00, 0xd4, 0xf0, 0xff, 0xff,
    0x08, 0x00, 0x00, 0x00, 0x10, 0x00, 0x00, 0x00, 0x01, 0x00, 0x00, 0x00,
    0x80, 0xff, 0xff, 0xff, 0xff, 0xff, 0xff, 0xff, 0x01, 0x00, 0x00, 0x00,
    0x6f, 0x27, 0x42, 0x3c, 0x35, 0x00, 0x00, 0x00, 0x63, 0x6e, 0x6e, 0x5f,
    0x64, 0x75, 0x61, 0x6c, 0x62, 0x72, 0x61, 0x6e, 0x63, 0x68, 0x5f, 0x67,
    0x61, 0x73, 0x5f, 0x31, 0x2f, 0x6d, 0x61, 0x78, 0x70, 0x6f, 0x6f, 0x6c,
    0x31, 0x64, 0x5f, 0x31, 0x2f, 0x4d, 0x61, 0x78, 0x50, 0x6f, 0x6f, 0x6c,
    0x31, 0x64, 0x2f, 0x45, 0x78, 0x70, 0x61, 0x6e, 0x64, 0x44, 0x69, 0x6d,
    0x73, 0x00, 0x00, 0x00, 0x04, 0x00, 0x00, 0x00, 0x01, 0x00, 0x00, 0x00,
    0x01, 0x00, 0x00, 0x00, 0x08, 0x00, 0x00, 0x00, 0x10, 0x00, 0x00, 0x00,
    0x86, 0xf1, 0xff, 0xff, 0x00, 0x00, 0x00, 0x01, 0x18, 0x00, 0x00, 0x00,
    0x24, 0x00, 0x00, 0x00, 0x44, 0x00, 0x00, 0x00, 0x14, 0x00, 0x00, 0x00,
    0x00, 0x00, 0x00, 0x09, 0xe0, 0x00, 0x00, 0x00, 0x03, 0x00, 0x00, 0x00,
    0xff, 0xff, 0xff, 0xff, 0x08, 0x00, 0x00, 0x00, 0x10, 0x00, 0x00, 0x00,
    0x74, 0xf1, 0xff, 0xff, 0x08, 0x00, 0x00, 0x00, 0x14, 0x00, 0x00, 0x00,
    0x01, 0x00, 0x00, 0x00, 0x80, 0xff, 0xff, 0xff, 0xff, 0xff, 0xff, 0xff,
    0x00, 0x00, 0x00, 0x00, 0x01, 0x00, 0x00, 0x00, 0x6f, 0x27, 0x42, 0x3c,
    0xa0, 0x00, 0x00, 0x00, 0x63, 0x6e, 0x6e, 0x5f, 0x64, 0x75, 0x61, 0x6c,
    0x62, 0x72, 0x61, 0x6e, 0x63, 0x68, 0x5f, 0x67, 0x61, 0x73, 0x5f, 0x31,
    0x2f, 0x63, 0x6f, 0x6e, 0x76, 0x31, 0x64, 0x5f, 0x31, 0x2f, 0x52, 0x65,
    0x6c, 0x75, 0x3b, 0x63, 0x6e, 0x6e, 0x5f, 0x64, 0x75, 0x61, 0x6c, 0x62,
    0x72, 0x61, 0x6e, 0x63, 0x68, 0x5f, 0x67, 0x61, 0x73, 0x5f, 0x31, 0x2f,
    0x63, 0x6f, 0x6e, 0x76, 0x31, 0x64, 0x5f, 0x31, 0x2f, 0x42, 0x69, 0x61,
    0x73, 0x41, 0x64, 0x64, 0x3b, 0x63, 0x6e, 0x6e, 0x5f, 0x64, 0x75, 0x61,
    0x6c, 0x62, 0x72, 0x61, 0x6e, 0x63, 0x68, 0x5f, 0x67, 0x61, 0x73, 0x5f,
    0x31, 0x2f, 0x63, 0x6f, 0x6e, 0x76, 0x31, 0x64, 0x5f, 0x31, 0x2f, 0x63,
    0x6f, 0x6e, 0x76, 0x6f, 0x6c, 0x75, 0x74, 0x69, 0x6f, 0x6e, 0x2f, 0x53,
    0x71, 0x75, 0x65, 0x65, 0x7a, 0x65, 0x3b, 0x63, 0x6e, 0x6e, 0x5f, 0x64,
    0x75, 0x61, 0x6c, 0x62, 0x72, 0x61, 0x6e, 0x63, 0x68, 0x5f, 0x67, 0x61,
    0x73, 0x5f, 0x31, 0x2f, 0x63, 0x6f, 0x6e, 0x76, 0x31, 0x64, 0x5f, 0x31,
    0x2f, 0x53, 0x71, 0x75, 0x65, 0x65, 0x7a, 0x65, 0x00, 0x00, 0x00, 0x00,
    0x03, 0x00, 0x00, 0x00, 0x01, 0x00, 0x00, 0x00, 0x08, 0x00, 0x00, 0x00,
    0x10, 0x00, 0x00, 0x00, 0x92, 0xf2, 0xff, 0xff, 0x00, 0x00, 0x00, 0x01,
    0x18, 0x00, 0x00, 0x00, 0x28, 0x00, 0x00, 0x00, 0x44, 0x00, 0x00, 0x00,
    0x13, 0x00, 0x00, 0x00, 0x00, 0x00, 0x00, 0x09, 0x08, 0x01, 0x00, 0x00,
    0x04, 0x00, 0x00, 0x00, 0xff, 0xff, 0xff, 0xff, 0x01, 0x00, 0x00, 0x00,
    0x08, 0x00, 0x00, 0x00, 0x10, 0x00, 0x00, 0x00, 0x84, 0xf2, 0xff, 0xff,
    0x08, 0x00, 0x00, 0x00, 0x10, 0x00, 0x00, 0x00, 0x01, 0x00, 0x00, 0x00,
    0x80, 0xff, 0xff, 0xff, 0xff, 0xff, 0xff, 0xff, 0x01, 0x00, 0x00, 0x00,
    0x6f, 0x27, 0x42, 0x3c, 0xcb, 0x00, 0x00, 0x00, 0x63, 0x6e, 0x6e, 0x5f,
    0x64, 0x75, 0x61, 0x6c, 0x62, 0x72, 0x61, 0x6e, 0x63, 0x68, 0x5f, 0x67,
    0x61, 0x73, 0x5f, 0x31, 0x2f, 0x63, 0x6f, 0x6e, 0x76, 0x31, 0x64, 0x5f,
    0x31, 0x2f, 0x52, 0x65, 0x6c, 0x75, 0x3b, 0x63, 0x6e, 0x6e, 0x5f, 0x64,
    0x75, 0x61, 0x6c, 0x62, 0x72, 0x61, 0x6e, 0x63, 0x68, 0x5f, 0x67, 0x61,
    0x73, 0x5f, 0x31, 0x2f, 0x63, 0x6f, 0x6e, 0x76, 0x31, 0x64, 0x5f, 0x31,
    0x2f, 0x42, 0x69, 0x61, 0x73, 0x41, 0x64, 0x64, 0x3b, 0x63, 0x6e, 0x6e,
    0x5f, 0x64, 0x75, 0x61, 0x6c, 0x62, 0x72, 0x61, 0x6e, 0x63, 0x68, 0x5f,
    0x67, 0x61, 0x73, 0x5f, 0x31, 0x2f, 0x63, 0x6f, 0x6e, 0x76, 0x31, 0x64,
    0x5f, 0x31, 0x2f, 0x63, 0x6f, 0x6e, 0x76, 0x6f, 0x6c, 0x75, 0x74, 0x69,
    0x6f, 0x6e, 0x2f, 0x53, 0x71, 0x75, 0x65, 0x65, 0x7a, 0x65, 0x3b, 0x63,
    0x6e, 0x6e, 0x5f, 0x64, 0x75, 0x61, 0x6c, 0x62, 0x72, 0x61, 0x6e, 0x63,
    0x68, 0x5f, 0x67, 0x61, 0x73, 0x5f, 0x31, 0x2f, 0x63, 0x6f, 0x6e, 0x76,
    0x31, 0x64, 0x5f, 0x31, 0x2f, 0x53, 0x71, 0x75, 0x65, 0x65, 0x7a, 0x65,
    0x3b, 0x63, 0x6e, 0x6e, 0x5f, 0x64, 0x75, 0x61, 0x6c, 0x62, 0x72, 0x61,
    0x6e, 0x63, 0x68, 0x5f, 0x67, 0x61, 0x73, 0x5f, 0x31, 0x2f, 0x63, 0x6f,
    0x6e, 0x76, 0x31, 0x64, 0x5f, 0x31, 0x2f, 0x63, 0x6f, 0x6e, 0x76, 0x6f,
    0x6c, 0x75, 0x74, 0x69, 0x6f, 0x6e, 0x31, 0x00, 0x04, 0x00, 0x00, 0x00,
    0x01, 0x00, 0x00, 0x00, 0x01, 0x00, 0x00, 0x00, 0x08, 0x00, 0x00, 0x00,
    0x10, 0x00, 0x00, 0x00, 0xca, 0xf3, 0xff, 0xff, 0x00, 0x00, 0x00, 0x01,
    0x18, 0x00, 0x00, 0x00, 0x28, 0x00, 0x00, 0x00, 0x48, 0x00, 0x00, 0x00,
    0x12, 0x00, 0x00, 0x00, 0x00, 0x00, 0x00, 0x09, 0x78, 0x00, 0x00, 0x00,
    0x04, 0x00, 0x00, 0x00, 0xff, 0xff, 0xff, 0xff, 0x01, 0x00, 0x00, 0x00,
    0x08, 0x00, 0x00, 0x00, 0x01, 0x00, 0x00, 0x00, 0xbc, 0xf3, 0xff, 0xff,
    0x08, 0x00, 0x00, 0x00, 0x14, 0x00, 0x00, 0x00, 0x01, 0x00, 0x00, 0x00,
    0x80, 0xff, 0xff, 0xff, 0xff, 0xff, 0xff, 0xff, 0x00, 0x00, 0x00, 0x00,
    0x01, 0x00, 0x00, 0x00, 0x81, 0x80, 0x80, 0x3b, 0x34, 0x00, 0x00, 0x00,
    0x63, 0x6e, 0x6e, 0x5f, 0x64, 0x75, 0x61, 0x6c, 0x62, 0x72, 0x61, 0x6e,
    0x63, 0x68, 0x5f, 0x67, 0x61, 0x73, 0x5f, 0x31, 0x2f, 0x63, 0x6f, 0x6e,
    0x76, 0x31, 0x64, 0x5f, 0x31, 0x2f, 0x63, 0x6f, 0x6e, 0x76, 0x6f, 0x6c,
    0x75, 0x74, 0x69, 0x6f, 0x6e, 0x2f, 0x45, 0x78, 0x70, 0x61, 0x6e, 0x64,
    0x44, 0x69, 0x6d, 0x73, 0x00, 0x00, 0x00, 0x00, 0x04, 0x00, 0x00, 0x00,
    0x01, 0x00, 0x00, 0x00, 0x01, 0x00, 0x00, 0x00, 0x08, 0x00, 0x00, 0x00,
    0x01, 0x00, 0x00, 0x00, 0x72, 0xf5, 0xff, 0xff, 0x00, 0x00, 0x00, 0x01,
    0x14, 0x00, 0x00, 0x00, 0xe8, 0x00, 0x00, 0x00, 0x11, 0x00, 0x00, 0x00,
    0x00, 0x00, 0x00, 0x09, 0x0c, 0x01, 0x00, 0x00, 0x4c, 0xf4, 0xff, 0xff,
    0x08, 0x00, 0x00, 0x00, 0x8c, 0x00, 0x00, 0x00, 0x10, 0x00, 0x00, 0x00,
    0x00, 0x00, 0x00, 0x00, 0x00, 0x00, 0x00, 0x00, 0x00, 0x00, 0x00, 0x00,
    0x00, 0x00, 0x00, 0x00, 0x00, 0x00, 0x00, 0x00, 0x00, 0x00, 0x00, 0x00,
    0x00, 0x00, 0x00, 0x00, 0x00, 0x00, 0x00, 0x00, 0x00, 0x00, 0x00, 0x00,
    0x00, 0x00, 0x00, 0x00, 0x00, 0x00, 0x00, 0x00, 0x00, 0x00, 0x00, 0x00,
    0x00, 0x00, 0x00, 0x00, 0x00, 0x00, 0x00, 0x00, 0x00, 0x00, 0x00, 0x00,
    0x00, 0x00, 0x00, 0x00, 0x00, 0x00, 0x00, 0x00, 0x00, 0x00, 0x00, 0x00,
    0x00, 0x00, 0x00, 0x00, 0x00, 0x00, 0x00, 0x00, 0x00, 0x00, 0x00, 0x00,
    0x00, 0x00, 0x00, 0x00, 0x00, 0x00, 0x00, 0x00, 0x00, 0x00, 0x00, 0x00,
    0x00, 0x00, 0x00, 0x00, 0x00, 0x00, 0x00, 0x00, 0x00, 0x00, 0x00, 0x00,
    0x00, 0x00, 0x00, 0x00, 0x00, 0x00, 0x00, 0x00, 0x00, 0x00, 0x00, 0x00,
    0x00, 0x00, 0x00, 0x00, 0x00, 0x00, 0x00, 0x00, 0x00, 0x00, 0x00, 0x00,
    0x10, 0x00, 0x00, 0x00, 0xe2, 0xbf, 0x1e, 0x3b, 0x15, 0x12, 0x8f, 0x3b,
    0x79, 0x11, 0xfa, 0x3b, 0xe2, 0xd8, 0xc9, 0x3b, 0xd9, 0x45, 0x90, 0x3b,
    0x0d, 0xab, 0xf1, 0x3a, 0x2a, 0xa8, 0x02, 0x3b, 0xab, 0x36, 0xec, 0x3b,
    0xc2, 0xa8, 0x8d, 0x3b, 0x9c, 0xca, 0xa7, 0x3b, 0x05, 0x63, 0x24, 0x3b,
    0xbf, 0xc6, 0xdf, 0x3b, 0x7b, 0x41, 0xd8, 0x3b, 0xaa, 0x1e, 0xa6, 0x3b,
    0x14, 0xef, 0x01, 0x3c, 0xcb, 0x89, 0xcb, 0x3b, 0x29, 0x00, 0x00, 0x00,
    0x63, 0x6e, 0x6e, 0x5f, 0x64, 0x75, 0x61, 0x6c, 0x62, 0x72, 0x61, 0x6e,
    0x63, 0x68, 0x5f, 0x67, 0x61, 0x73, 0x5f, 0x31, 0x2f, 0x63, 0x6f, 0x6e,
    0x76, 0x31, 0x64, 0x5f, 0x31, 0x2f, 0x63, 0x6f, 0x6e, 0x76, 0x6f, 0x6c,
    0x75, 0x74, 0x69, 0x6f, 0x6e, 0x00, 0x00, 0x00, 0x04, 0x00, 0x00, 0x00,
    0x10, 0x00, 0x00, 0x00, 0x01, 0x00, 0x00, 0x00, 0x03, 0x00, 0x00, 0x00,
    0x01, 0x00, 0x00, 0x00, 0xaa, 0xf6, 0xff, 0xff, 0x00, 0x00, 0x00, 0x01,
    0x14, 0x00, 0x00, 0x00, 0xe4, 0x00, 0x00, 0x00, 0x10, 0x00, 0x00, 0x00,
    0x00, 0x00, 0x00, 0x02, 0xa8, 0x01, 0x00, 0x00, 0x84, 0xf5, 0xff, 0xff,
    0x08, 0x00, 0x00, 0x00, 0x88, 0x00, 0x00, 0x00, 0x10, 0x00, 0x00, 0x00,
    0x00, 0x00, 0x00, 0x00, 0x00, 0x00, 0x00, 0x00, 0x00, 0x00, 0x00, 0x00,
    0x00, 0x00, 0x00, 0x00, 0x00, 0x00, 0x00, 0x00, 0x00, 0x00, 0x00, 0x00,
    0x00, 0x00, 0x00, 0x00, 0x00, 0x00, 0x00, 0x00, 0x00, 0x00, 0x00, 0x00,
    0x00, 0x00, 0x00, 0x00, 0x00, 0x00, 0x00, 0x00, 0x00, 0x00, 0x00, 0x00,
    0x00, 0x00, 0x00, 0x00, 0x00, 0x00, 0x00, 0x00, 0x00, 0x00, 0x00, 0x00,
    0x00, 0x00, 0x00, 0x00, 0x00, 0x00, 0x00, 0x00, 0x00, 0x00, 0x00, 0x00,
    0x00, 0x00, 0x00, 0x00, 0x00, 0x00, 0x00, 0x00, 0x00, 0x00, 0x00, 0x00,
    0x00, 0x00, 0x00, 0x00, 0x00, 0x00, 0x00, 0x00, 0x00, 0x00, 0x00, 0x00,
    0x00, 0x00, 0x00, 0x00, 0x00, 0x00, 0x00, 0x00, 0x00, 0x00, 0x00, 0x00,
    0x00, 0x00, 0x00, 0x00, 0x00, 0x00, 0x00, 0x00, 0x00, 0x00, 0x00, 0x00,
    0x00, 0x00, 0x00, 0x00, 0x00, 0x00, 0x00, 0x00, 0x10, 0x00, 0x00, 0x00,
    0x42, 0x5f, 0x1f, 0x37, 0xb7, 0xa1, 0x8f, 0x37, 0x86, 0x0c, 0xfb, 0x37,
    0x86, 0xa3, 0xca, 0x37, 0xb0, 0xd6, 0x90, 0x37, 0xac, 0x9d, 0xf2, 0x36,
    0x56, 0x2b, 0x03, 0x37, 0xd0, 0x23, 0xed, 0x37, 0xfa, 0x36, 0x8e, 0x37,
    0x10, 0x73, 0xa8, 0x37, 0x0e, 0x08, 0x25, 0x37, 0x67, 0xa7, 0xe0, 0x37,
    0x96, 0x1a, 0xd9, 0x37, 0x70, 0xc5, 0xa6, 0x37, 0x86, 0x71, 0x02, 0x38,
    0x22, 0x56, 0xcc, 0x37, 0xca, 0x00, 0x00, 0x00, 0x63, 0x6e, 0x6e, 0x5f,
    0x64, 0x75, 0x61, 0x6c, 0x62, 0x72, 0x61, 0x6e, 0x63, 0x68, 0x5f, 0x67,
    0x61, 0x73, 0x5f, 0x31, 0x2f, 0x63, 0x6f, 0x6e, 0x76, 0x31, 0x64, 0x5f,
    0x31, 0x2f, 0x52, 0x65, 0x6c, 0x75, 0x3b, 0x63, 0x6e, 0x6e, 0x5f, 0x64,
    0x75, 0x61, 0x6c, 0x62, 0x72, 0x61, 0x6e, 0x63, 0x68, 0x5f, 0x67, 0x61,
    0x73, 0x5f, 0x31, 0x2f, 0x63, 0x6f, 0x6e, 0x76, 0x31, 0x64, 0x5f, 0x31,
    0x2f, 0x42, 0x69, 0x61, 0x73, 0x41, 0x64, 0x64, 0x3b, 0x63, 0x6e, 0x6e,
    0x5f, 0x64, 0x75, 0x61, 0x6c, 0x62, 0x72, 0x61, 0x6e, 0x63, 0x68, 0x5f,
    0x67, 0x61, 0x73, 0x5f, 0x31, 0x2f, 0x63, 0x6f, 0x6e, 0x76, 0x31, 0x64,
    0x5f, 0x31, 0x2f, 0x63, 0x6f, 0x6e, 0x76, 0x6f, 0x6c, 0x75, 0x74, 0x69,
    0x6f, 0x6e, 0x2f, 0x53, 0x71, 0x75, 0x65, 0x65, 0x7a, 0x65, 0x3b, 0x63,
    0x6e, 0x6e, 0x5f, 0x64, 0x75, 0x61, 0x6c, 0x62, 0x72, 0x61, 0x6e, 0x63,
    0x68, 0x5f, 0x67, 0x61, 0x73, 0x5f, 0x31, 0x2f, 0x63, 0x6f, 0x6e, 0x76,
    0x31, 0x64, 0x5f, 0x31, 0x2f, 0x53, 0x71, 0x75, 0x65, 0x65, 0x7a, 0x65,
    0x3b, 0x63, 0x6e, 0x6e, 0x5f, 0x64, 0x75, 0x61, 0x6c, 0x62, 0x72, 0x61,
    0x6e, 0x63, 0x68, 0x5f, 0x67, 0x61, 0x73, 0x5f, 0x31, 0x2f, 0x63, 0x6f,
    0x6e, 0x76, 0x31, 0x64, 0x5f, 0x31, 0x2f, 0x63, 0x6f, 0x6e, 0x76, 0x6f,
    0x6c, 0x75, 0x74, 0x69, 0x6f, 0x6e, 0x00, 0x00, 0x01, 0x00, 0x00, 0x00,
    0x10, 0x00, 0x00, 0x00, 0x72, 0xf8, 0xff, 0xff, 0x00, 0x00, 0x00, 0x01,
    0x14, 0x00, 0x00, 0x00, 0x84, 0x00, 0x00, 0x00, 0x0f, 0x00, 0x00, 0x00,
    0x00, 0x00, 0x00, 0x09, 0xac, 0x00, 0x00, 0x00, 0x4c, 0xf7, 0xff, 0xff,
    0x08, 0x00, 0x00, 0x00, 0x48, 0x00, 0x00, 0x00, 0x08, 0x00, 0x00, 0x00,
    0x00, 0x00, 0x00, 0x00, 0x00, 0x00, 0x00, 0x00, 0x00, 0x00, 0x00, 0x00,
    0x00, 0x00, 0x00, 0x00, 0x00, 0x00, 0x00, 0x00, 0x00, 0x00, 0x00, 0x00,
    0x00, 0x00, 0x00, 0x00, 0x00, 0x00, 0x00, 0x00, 0x00, 0x00, 0x00, 0x00,
    0x00, 0x00, 0x00, 0x00, 0x00, 0x00, 0x00, 0x00, 0x00, 0x00, 0x00, 0x00,
    0x00, 0x00, 0x00, 0x00, 0x00, 0x00, 0x00, 0x00, 0x00, 0x00, 0x00, 0x00,
    0x00, 0x00, 0x00, 0x00, 0x08, 0x00, 0x00, 0x00, 0x4b, 0xa1, 0xa0, 0x3b,
    0x99, 0xc4, 0x82, 0x3b, 0x28, 0x86, 0x08, 0x3c, 0x11, 0x4c, 0x05, 0x3c,
    0xd9, 0xa8, 0x9c, 0x3b, 0x8a, 0x7a, 0x9e, 0x3b, 0xaa, 0x0e, 0x7f, 0x3b,
    0x90, 0x0d, 0x10, 0x3c, 0x2c, 0x00, 0x00, 0x00, 0x63, 0x6e, 0x6e, 0x5f,
    0x64, 0x75, 0x61, 0x6c, 0x62, 0x72, 0x61, 0x6e, 0x63, 0x68, 0x5f, 0x67,
    0x61, 0x73, 0x5f, 0x31, 0x2f, 0x64, 0x65, 0x6e, 0x73, 0x65, 0x5f, 0x65,
    0x76, 0x69, 0x64, 0x65, 0x6e, 0x63, 0x65, 0x5f, 0x31, 0x2f, 0x4d, 0x61,
    0x74, 0x4d, 0x75, 0x6c, 0x00, 0x00, 0x00, 0x00, 0x02, 0x00, 0x00, 0x00,
    0x08, 0x00, 0x00, 0x00, 0x07, 0x00, 0x00, 0x00, 0x42, 0xf9, 0xff, 0xff,
    0x00, 0x00, 0x00, 0x01, 0x14, 0x00, 0x00, 0x00, 0x84, 0x00, 0x00, 0x00,
    0x0e, 0x00, 0x00, 0x00, 0x00, 0x00, 0x00, 0x02, 0xd8, 0x00, 0x00, 0x00,
    0x1c, 0xf8, 0xff, 0xff, 0x08, 0x00, 0x00, 0x00, 0x48, 0x00, 0x00, 0x00,
    0x08, 0x00, 0x00, 0x00, 0x00, 0x00, 0x00, 0x00, 0x00, 0x00, 0x00, 0x00,
    0x00, 0x00, 0x00, 0x00, 0x00, 0x00, 0x00, 0x00, 0x00, 0x00, 0x00, 0x00,
    0x00, 0x00, 0x00, 0x00, 0x00, 0x00, 0x00, 0x00, 0x00, 0x00, 0x00, 0x00,
    0x00, 0x00, 0x00, 0x00, 0x00, 0x00, 0x00, 0x00, 0x00, 0x00, 0x00, 0x00,
    0x00, 0x00, 0x00, 0x00, 0x00, 0x00, 0x00, 0x00, 0x00, 0x00, 0x00, 0x00,
    0x00, 0x00, 0x00, 0x00, 0x00, 0x00, 0x00, 0x00, 0x08, 0x00, 0x00, 0x00,
    0x8e, 0x42, 0xa1, 0x37, 0xe1, 0x47, 0x83, 0x37, 0x38, 0x0f, 0x09, 0x38,
    0xe3, 0xd1, 0x05, 0x38, 0x20, 0x46, 0x9d, 0x37, 0xa4, 0x19, 0x9f, 0x37,
    0x5d, 0x07, 0x80, 0x37, 0x2f, 0x9e, 0x10, 0x38, 0x58, 0x00, 0x00, 0x00,
    0x63, 0x6e, 0x6e, 0x5f, 0x64, 0x75, 0x61, 0x6c, 0x62, 0x72, 0x61, 0x6e,
    0x63, 0x68, 0x5f, 0x67, 0x61, 0x73, 0x5f, 0x31, 0x2f, 0x64, 0x65, 0x6e,
    0x73, 0x65, 0x5f, 0x65, 0x76, 0x69, 0x64, 0x65, 0x6e, 0x63, 0x65, 0x5f,
    0x31, 0x2f, 0x52, 0x65, 0x6c, 0x75, 0x3b, 0x63, 0x6e, 0x6e, 0x5f, 0x64,
    0x75, 0x61, 0x6c, 0x62, 0x72, 0x61, 0x6e, 0x63, 0x68, 0x5f, 0x67, 0x61,
    0x73, 0x5f, 0x31, 0x2f, 0x64, 0x65, 0x6e, 0x73, 0x65, 0x5f, 0x65, 0x76,
    0x69, 0x64, 0x65, 0x6e, 0x63, 0x65, 0x5f, 0x31, 0x2f, 0x42, 0x69, 0x61,
    0x73, 0x41, 0x64, 0x64, 0x00, 0x00, 0x00, 0x00, 0x01, 0x00, 0x00, 0x00,
    0x08, 0x00, 0x00, 0x00, 0x3a, 0xfa, 0xff, 0xff, 0x00, 0x00, 0x00, 0x01,
    0x14, 0x00, 0x00, 0x00, 0xe8, 0x00, 0x00, 0x00, 0x0d, 0x00, 0x00, 0x00,
    0x00, 0x00, 0x00, 0x09, 0x0c, 0x01, 0x00, 0x00, 0x14, 0xf9, 0xff, 0xff,
    0x08, 0x00, 0x00, 0x00, 0x8c, 0x00, 0x00, 0x00, 0x10, 0x00, 0x00, 0x00,
    0x00, 0x00, 0x00, 0x00, 0x00, 0x00, 0x00, 0x00, 0x00, 0x00, 0x00, 0x00,
    0x00, 0x00, 0x00, 0x00, 0x00, 0x00, 0x00, 0x00, 0x00, 0x00, 0x00, 0x00,
    0x00, 0x00, 0x00, 0x00, 0x00, 0x00, 0x00, 0x00, 0x00, 0x00, 0x00, 0x00,
    0x00, 0x00, 0x00, 0x00, 0x00, 0x00, 0x00, 0x00, 0x00, 0x00, 0x00, 0x00,
    0x00, 0x00, 0x00, 0x00, 0x00, 0x00, 0x00, 0x00, 0x00, 0x00, 0x00, 0x00,
    0x00, 0x00, 0x00, 0x00, 0x00, 0x00, 0x00, 0x00, 0x00, 0x00, 0x00, 0x00,
    0x00, 0x00, 0x00, 0x00, 0x00, 0x00, 0x00, 0x00, 0x00, 0x00, 0x00, 0x00,
    0x00, 0x00, 0x00, 0x00, 0x00, 0x00, 0x00, 0x00, 0x00, 0x00, 0x00, 0x00,
    0x00, 0x00, 0x00, 0x00, 0x00, 0x00, 0x00, 0x00, 0x00, 0x00, 0x00, 0x00,
    0x00, 0x00, 0x00, 0x00, 0x00, 0x00, 0x00, 0x00, 0x00, 0x00, 0x00, 0x00,
    0x00, 0x00, 0x00, 0x00, 0x00, 0x00, 0x00, 0x00, 0x00, 0x00, 0x00, 0x00,
    0x10, 0x00, 0x00, 0x00, 0xed, 0xdd, 0xcf, 0x3b, 0xe8, 0x51, 0x06, 0x3b,
    0xeb, 0xec, 0x10, 0x3b, 0x66, 0x6a, 0x04, 0x3b, 0x03, 0x4a, 0xf8, 0x3b,
    0xcc, 0xed, 0x01, 0x3c, 0x75, 0xc5, 0xec, 0x3b, 0x76, 0x2c, 0x1c, 0x3c,
    0x5c, 0x8b, 0x0b, 0x3b, 0x1a, 0x1d, 0x32, 0x3c, 0x02, 0xc7, 0x15, 0x3c,
    0xa7, 0xc4, 0x15, 0x3c, 0x56, 0xd7, 0x04, 0x3c, 0x11, 0x47, 0xcb, 0x3b,
    0xdb, 0xba, 0x33, 0x3c, 0xd1, 0x7a, 0x9f, 0x3b, 0x2a, 0x00, 0x00, 0x00,
    0x63, 0x6e, 0x6e, 0x5f, 0x64, 0x75, 0x61, 0x6c, 0x62, 0x72, 0x61, 0x6e,
    0x63, 0x68, 0x5f, 0x67, 0x61, 0x73, 0x5f, 0x31, 0x2f, 0x64, 0x65, 0x6e,
    0x73, 0x65, 0x5f, 0x6d, 0x65, 0x72, 0x67, 0x65, 0x64, 0x5f, 0x31, 0x2f,
    0x4d, 0x61, 0x74, 0x4d, 0x75, 0x6c, 0x00, 0x00, 0x02, 0x00, 0x00, 0x00,
    0x10, 0x00, 0x00, 0x00, 0x48, 0x00, 0x00, 0x00, 0x6a, 0xfb, 0xff, 0xff,
    0x00, 0x00, 0x00, 0x01, 0x14, 0x00, 0x00, 0x00, 0xe8, 0x00, 0x00, 0x00,
    0x0c, 0x00, 0x00, 0x00, 0x00, 0x00, 0x00, 0x02, 0x38, 0x01, 0x00, 0x00,
    0x44, 0xfa, 0xff, 0xff, 0x08, 0x00, 0x00, 0x00, 0x8c, 0x00, 0x00, 0x00,
    0x10, 0x00, 0x00, 0x00, 0x00, 0x00, 0x00, 0x00, 0x00, 0x00, 0x00, 0x00,
    0x00, 0x00, 0x00, 0x00, 0x00, 0x00, 0x00, 0x00, 0x00, 0x00, 0x00, 0x00,
    0x00, 0x00, 0x00, 0x00, 0x00, 0x00, 0x00, 0x00, 0x00, 0x00, 0x00, 0x00,
    0x00, 0x00, 0x00, 0x00, 0x00, 0x00, 0x00, 0x00, 0x00, 0x00, 0x00, 0x00,
    0x00, 0x00, 0x00, 0x00, 0x00, 0x00, 0x00, 0x00, 0x00, 0x00, 0x00, 0x00,
    0x00, 0x00, 0x00, 0x00, 0x00, 0x00, 0x00, 0x00, 0x00, 0x00, 0x00, 0x00,
    0x00, 0x00, 0x00, 0x00, 0x00, 0x00, 0x00, 0x00, 0x00, 0x00, 0x00, 0x00,
    0x00, 0x00, 0x00, 0x00, 0x00, 0x00, 0x00, 0x00, 0x00, 0x00, 0x00, 0x00,
    0x00, 0x00, 0x00, 0x00, 0x00, 0x00, 0x00, 0x00, 0x00, 0x00, 0x00, 0x00,
    0x00, 0x00, 0x00, 0x00, 0x00, 0x00, 0x00, 0x00, 0x00, 0x00, 0x00, 0x00,
    0x00, 0x00, 0x00, 0x00, 0x00, 0x00, 0x00, 0x00, 0x00, 0x00, 0x00, 0x00,
    0x00, 0x00, 0x00, 0x00, 0x10, 0x00, 0x00, 0x00, 0x33, 0xa6, 0x9d, 0x38,
    0x85, 0xbd, 0xcb, 0x37, 0xba, 0xd3, 0xdb, 0x37, 0x0e, 0xda, 0xc8, 0x37,
    0x55, 0x4e, 0xbc, 0x38, 0x70, 0x14, 0xc5, 0x38, 0x1b, 0x92, 0xb3, 0x38,
    0x80, 0xe3, 0xec, 0x38, 0x35, 0xaa, 0xd3, 0x37, 0x7d, 0x15, 0x07, 0x39,
    0xc4, 0x2f, 0xe3, 0x38, 0x31, 0x2c, 0xe3, 0x38, 0x4b, 0x7f, 0xc9, 0x38,
    0x2b, 0x2b, 0x9a, 0x38, 0x49, 0x4f, 0x08, 0x39, 0x46, 0xe7, 0x71, 0x38,
    0x54, 0x00, 0x00, 0x00, 0x63, 0x6e, 0x6e, 0x5f, 0x64, 0x75, 0x61, 0x6c,
    0x62, 0x72, 0x61, 0x6e, 0x63, 0x68, 0x5f, 0x67, 0x61, 0x73, 0x5f, 0x31,
    0x2f, 0x64, 0x65, 0x6e, 0x73, 0x65, 0x5f, 0x6d, 0x65, 0x72, 0x67, 0x65,
    0x64, 0x5f, 0x31, 0x2f, 0x52, 0x65, 0x6c, 0x75, 0x3b, 0x63, 0x6e, 0x6e,
    0x5f, 0x64, 0x75, 0x61, 0x6c, 0x62, 0x72, 0x61, 0x6e, 0x63, 0x68, 0x5f,
    0x67, 0x61, 0x73, 0x5f, 0x31, 0x2f, 0x64, 0x65, 0x6e, 0x73, 0x65, 0x5f,
    0x6d, 0x65, 0x72, 0x67, 0x65, 0x64, 0x5f, 0x31, 0x2f, 0x42, 0x69, 0x61,
    0x73, 0x41, 0x64, 0x64, 0x00, 0x00, 0x00, 0x00, 0x01, 0x00, 0x00, 0x00,
    0x10, 0x00, 0x00, 0x00, 0xc2, 0xfc, 0xff, 0xff, 0x00, 0x00, 0x00, 0x01,
    0x14, 0x00, 0x00, 0x00, 0x4c, 0x00, 0x00, 0x00, 0x0b, 0x00, 0x00, 0x00,
    0x00, 0x00, 0x00, 0x09, 0x6c, 0x00, 0x00, 0x00, 0x9c, 0xfb, 0xff, 0xff,
    0x08, 0x00, 0x00, 0x00, 0x24, 0x00, 0x00, 0x00, 0x03, 0x00, 0x00, 0x00,
    0x00, 0x00, 0x00, 0x00, 0x00, 0x00, 0x00, 0x00, 0x00, 0x00, 0x00, 0x00,
    0x00, 0x00, 0x00, 0x00, 0x00, 0x00, 0x00, 0x00, 0x00, 0x00, 0x00, 0x00,
    0x00, 0x00, 0x00, 0x00, 0x03, 0x00, 0x00, 0x00, 0xf1, 0xbf, 0x16, 0x3c,
    0x16, 0x5f, 0x82, 0x3c, 0x3d, 0x25, 0x03, 0x3c, 0x24, 0x00, 0x00, 0x00,
    0x63, 0x6e, 0x6e, 0x5f, 0x64, 0x75, 0x61, 0x6c, 0x62, 0x72, 0x61, 0x6e,
    0x63, 0x68, 0x5f, 0x67, 0x61, 0x73, 0x5f, 0x31, 0x2f, 0x6f, 0x75, 0x74,
    0x70, 0x75, 0x74, 0x5f, 0x31, 0x2f, 0x4d, 0x61, 0x74, 0x4d, 0x75, 0x6c,
    0x00, 0x00, 0x00, 0x00, 0x02, 0x00, 0x00, 0x00, 0x03, 0x00, 0x00, 0x00,
    0x10, 0x00, 0x00, 0x00, 0x52, 0xfd, 0xff, 0xff, 0x00, 0x00, 0x00, 0x01,
    0x14, 0x00, 0x00, 0x00, 0x4c, 0x00, 0x00, 0x00, 0x0a, 0x00, 0x00, 0x00,
    0x00, 0x00, 0x00, 0x02, 0x6c, 0x00, 0x00, 0x00, 0x2c, 0xfc, 0xff, 0xff,
    0x08, 0x00, 0x00, 0x00, 0x24, 0x00, 0x00, 0x00, 0x03, 0x00, 0x00, 0x00,
    0x00, 0x00, 0x00, 0x00, 0x00, 0x00, 0x00, 0x00, 0x00, 0x00, 0x00, 0x00,
    0x00, 0x00, 0x00, 0x00, 0x00, 0x00, 0x00, 0x00, 0x00, 0x00, 0x00, 0x00,
    0x00, 0x00, 0x00, 0x00, 0x03, 0x00, 0x00, 0x00, 0xe9, 0x56, 0xa2, 0x39,
    0xfb, 0x64, 0x0c, 0x3a, 0x5e, 0x3a, 0x8d, 0x39, 0x25, 0x00, 0x00, 0x00,
    0x63, 0x6e, 0x6e, 0x5f, 0x64, 0x75, 0x61, 0x6c, 0x62, 0x72, 0x61, 0x6e,
    0x63, 0x68, 0x5f, 0x67, 0x61, 0x73, 0x5f, 0x31, 0x2f, 0x6f, 0x75, 0x74,
    0x70, 0x75, 0x74, 0x5f, 0x31, 0x2f, 0x42, 0x69, 0x61, 0x73, 0x41, 0x64,
    0x64, 0x00, 0x00, 0x00, 0x01, 0x00, 0x00, 0x00, 0x03, 0x00, 0x00, 0x00,
    0xde, 0xfd, 0xff, 0xff, 0x00, 0x00, 0x00, 0x01, 0x14, 0x00, 0x00, 0x00,
    0x14, 0x00, 0x00, 0x00, 0x09, 0x00, 0x00, 0x00, 0x00, 0x00, 0x00, 0x02,
    0x40, 0x00, 0x00, 0x00, 0xc8, 0xfd, 0xff, 0xff, 0x32, 0x00, 0x00, 0x00,
    0x63, 0x6e, 0x6e, 0x5f, 0x64, 0x75, 0x61, 0x6c, 0x62, 0x72, 0x61, 0x6e,
    0x63, 0x68, 0x5f, 0x67, 0x61, 0x73, 0x5f, 0x31, 0x2f, 0x66, 0x6c, 0x61,
    0x74, 0x74, 0x65, 0x6e, 0x5f, 0x61, 0x64, 0x63, 0x5f, 0x31, 0x2f, 0x52,
    0x65, 0x73, 0x68, 0x61, 0x70, 0x65, 0x2f, 0x73, 0x68, 0x61, 0x70, 0x65,
    0x2f, 0x31, 0x00, 0x00, 0x00, 0x00, 0x00, 0x00, 0x3a, 0xfe, 0xff, 0xff,
    0x00, 0x00, 0x00, 0x01, 0x14, 0x00, 0x00, 0x00, 0x14, 0x00, 0x00, 0x00,
    0x05, 0x00, 0x00, 0x00, 0x00, 0x00, 0x00, 0x02, 0x1c, 0x00, 0x00, 0x00,
    0x24, 0xfe, 0xff, 0xff, 0x0e, 0x00, 0x00, 0x00, 0x61, 0x72, 0x69, 0x74,
    0x68, 0x2e, 0x63, 0x6f, 0x6e, 0x73, 0x74, 0x61, 0x6e, 0x74, 0x00, 0x00,
    0x01, 0x00, 0x00, 0x00, 0x01, 0x00, 0x00, 0x00, 0x76, 0xfe, 0xff, 0xff,
    0x00, 0x00, 0x00, 0x01, 0x14, 0x00, 0x00, 0x00, 0x14, 0x00, 0x00, 0x00,
    0x07, 0x00, 0x00, 0x00, 0x00, 0x00, 0x00, 0x02, 0x44, 0x00, 0x00, 0x00,
    0x60, 0xfe, 0xff, 0xff, 0x36, 0x00, 0x00, 0x00, 0x63, 0x6e, 0x6e, 0x5f,
    0x64, 0x75, 0x61, 0x6c, 0x62, 0x72, 0x61, 0x6e, 0x63, 0x68, 0x5f, 0x67,
    0x61, 0x73, 0x5f, 0x31, 0x2f, 0x66, 0x6c, 0x61, 0x74, 0x74, 0x65, 0x6e,
    0x5f, 0x61, 0x64, 0x63, 0x5f, 0x31, 0x2f, 0x73, 0x74, 0x72, 0x69, 0x64,
    0x65, 0x64, 0x5f, 0x73, 0x6c, 0x69, 0x63, 0x65, 0x2f, 0x73, 0x74, 0x61,
    0x63, 0x6b, 0x00, 0x00, 0x01, 0x00, 0x00, 0x00, 0x01, 0x00, 0x00, 0x00,
    0xda, 0xfe, 0xff, 0xff, 0x00, 0x00, 0x00, 0x01, 0x14, 0x00, 0x00, 0x00,
    0x14, 0x00, 0x00, 0x00, 0x06, 0x00, 0x00, 0x00, 0x00, 0x00, 0x00, 0x02,
    0x40, 0x00, 0x00, 0x00, 0xc4, 0xfe, 0xff, 0xff, 0x32, 0x00, 0x00, 0x00,
    0x63, 0x6e, 0x6e, 0x5f, 0x64, 0x75, 0x61, 0x6c, 0x62, 0x72, 0x61, 0x6e,
    0x63, 0x68, 0x5f, 0x67, 0x61, 0x73, 0x5f, 0x31, 0x2f, 0x6d, 0x61, 0x78,
    0x70, 0x6f, 0x6f, 0x6c, 0x31, 0x64, 0x5f, 0x31, 0x2f, 0x4d, 0x61, 0x78,
    0x50, 0x6f, 0x6f, 0x6c, 0x31, 0x64, 0x2f, 0x53, 0x71, 0x75, 0x65, 0x65,
    0x7a, 0x65, 0x00, 0x00, 0x01, 0x00, 0x00, 0x00, 0x03, 0x00, 0x00, 0x00,
    0x3a, 0xff, 0xff, 0xff, 0x00, 0x00, 0x00, 0x01, 0x14, 0x00, 0x00, 0x00,
    0x14, 0x00, 0x00, 0x00, 0x05, 0x00, 0x00, 0x00, 0x00, 0x00, 0x00, 0x02,
    0x48, 0x00, 0x00, 0x00, 0x24, 0xff, 0xff, 0xff, 0x39, 0x00, 0x00, 0x00,
    0x63, 0x6e, 0x6e, 0x5f, 0x64, 0x75, 0x61, 0x6c, 0x62, 0x72, 0x61, 0x6e,
    0x63, 0x68, 0x5f, 0x67, 0x61, 0x73, 0x5f, 0x31, 0x2f, 0x6d, 0x61, 0x78,
    0x70, 0x6f, 0x6f, 0x6c, 0x31, 0x64, 0x5f, 0x31, 0x2f, 0x4d, 0x61, 0x78,
    0x50, 0x6f, 0x6f, 0x6c, 0x31, 0x64, 0x2f, 0x45, 0x78, 0x70, 0x61, 0x6e,
    0x64, 0x44, 0x69, 0x6d, 0x73, 0x2f, 0x64, 0x69, 0x6d, 0x00, 0x00, 0x00,
    0x00, 0x00, 0x00, 0x00, 0x9e, 0xff, 0xff, 0xff, 0x00, 0x00, 0x00, 0x01,
    0x14, 0x00, 0x00, 0x00, 0x14, 0x00, 0x00, 0x00, 0x04, 0x00, 0x00, 0x00,
    0x00, 0x00, 0x00, 0x02, 0x40, 0x00, 0x00, 0x00, 0x88, 0xff, 0xff, 0xff,
    0x31, 0x00, 0x00, 0x00, 0x63, 0x6e, 0x6e, 0x5f, 0x64, 0x75, 0x61, 0x6c,
    0x62, 0x72, 0x61, 0x6e, 0x63, 0x68, 0x5f, 0x67, 0x61, 0x73, 0x5f, 0x31,
    0x2f, 0x63, 0x6f, 0x6e, 0x76, 0x31, 0x64, 0x5f, 0x31, 0x2f, 0x63, 0x6f,
    0x6e, 0x76, 0x6f, 0x6c, 0x75, 0x74, 0x69, 0x6f, 0x6e, 0x2f, 0x53, 0x71,
    0x75, 0x65, 0x65, 0x7a, 0x65, 0x00, 0x00, 0x00, 0x01, 0x00, 0x00, 0x00,
    0x03, 0x00, 0x00, 0x00, 0x00, 0x00, 0x16, 0x00, 0x1c, 0x00, 0x18, 0x00,
    0x17, 0x00, 0x10, 0x00, 0x0c, 0x00, 0x08, 0x00, 0x00, 0x00, 0x00, 0x00,
    0x00, 0x00, 0x07, 0x00, 0x16, 0x00, 0x00, 0x00, 0x00, 0x00, 0x00, 0x01,
    0x18, 0x00, 0x00, 0x00, 0x18, 0x00, 0x00, 0x00, 0x03, 0x00, 0x00, 0x00,
    0x00, 0x00, 0x00, 0x02, 0x4c, 0x00, 0x00, 0x00, 0x04, 0x00, 0x04, 0x00,
    0x04, 0x00, 0x00, 0x00, 0x38, 0x00, 0x00, 0x00, 0x63, 0x6e, 0x6e, 0x5f,
    0x64, 0x75, 0x61, 0x6c, 0x62, 0x72, 0x61, 0x6e, 0x63, 0x68, 0x5f, 0x67,
    0x61, 0x73, 0x5f, 0x31, 0x2f, 0x63, 0x6f, 0x6e, 0x76, 0x31, 0x64, 0x5f,
    0x31, 0x2f, 0x63, 0x6f, 0x6e, 0x76, 0x6f, 0x6c, 0x75, 0x74, 0x69, 0x6f,
    0x6e, 0x2f, 0x45, 0x78, 0x70, 0x61, 0x6e, 0x64, 0x44, 0x69, 0x6d, 0x73,
    0x2f, 0x64, 0x69, 0x6d, 0x00, 0x00, 0x00, 0x00, 0x00, 0x00, 0x00, 0x00,
    0x7e, 0xff, 0xff, 0xff, 0x00, 0x00, 0x00, 0x01, 0x18, 0x00, 0x00, 0x00,
    0x24, 0x00, 0x00, 0x00, 0x40, 0x00, 0x00, 0x00, 0x02, 0x00, 0x00, 0x00,
    0x00, 0x00, 0x00, 0x09, 0x54, 0x00, 0x00, 0x00, 0x03, 0x00, 0x00, 0x00,
    0xff, 0xff, 0xff, 0xff, 0x08, 0x00, 0x00, 0x00, 0x01, 0x00, 0x00, 0x00,
    0x6c, 0xff, 0xff, 0xff, 0x08, 0x00, 0x00, 0x00, 0x10, 0x00, 0x00, 0x00,
    0x01, 0x00, 0x00, 0x00, 0x80, 0xff, 0xff, 0xff, 0xff, 0xff, 0xff, 0xff,
    0x01, 0x00, 0x00, 0x00, 0x81, 0x80, 0x80, 0x3b, 0x1b, 0x00, 0x00, 0x00,
    0x73, 0x65, 0x72, 0x76, 0x69, 0x6e, 0x67, 0x5f, 0x64, 0x65, 0x66, 0x61,
    0x75, 0x6c, 0x74, 0x5f, 0x61, 0x64, 0x63, 0x5f, 0x69, 0x6e, 0x70, 0x75,
    0x74, 0x3a, 0x30, 0x00, 0x03, 0x00, 0x00, 0x00, 0x01, 0x00, 0x00, 0x00,
    0x08, 0x00, 0x00, 0x00, 0x01, 0x00, 0x00, 0x00, 0x00, 0x00, 0x16, 0x00,
    0x20, 0x00, 0x1c, 0x00, 0x1b, 0x00, 0x14, 0x00, 0x10, 0x00, 0x0c, 0x00,
    0x00, 0x00, 0x00, 0x00, 0x08, 0x00, 0x07, 0x00, 0x16, 0x00, 0x00, 0x00,
    0x00, 0x00, 0x00, 0x01, 0x18, 0x00, 0x00, 0x00, 0x2c, 0x00, 0x00, 0x00,
    0x4c, 0x00, 0x00, 0x00, 0x01, 0x00, 0x00, 0x00, 0x00, 0x00, 0x00, 0x09,
    0x68, 0x00, 0x00, 0x00, 0x02, 0x00, 0x00, 0x00, 0xff, 0xff, 0xff, 0xff,
    0x07, 0x00, 0x00, 0x00, 0x0c, 0x00, 0x0c, 0x00, 0x00, 0x00, 0x00, 0x00,
    0x08, 0x00, 0x04, 0x00, 0x0c, 0x00, 0x00, 0x00, 0x08, 0x00, 0x00, 0x00,
    0x14, 0x00, 0x00, 0x00, 0x01, 0x00, 0x00, 0x00, 0x80, 0xff, 0xff, 0xff,
    0xff, 0xff, 0xff, 0xff, 0x00, 0x00, 0x00, 0x00, 0x01, 0x00, 0x00, 0x00,
    0x81, 0x80, 0x80, 0x3b, 0x20, 0x00, 0x00, 0x00, 0x73, 0x65, 0x72, 0x76,
    0x69, 0x6e, 0x67, 0x5f, 0x64, 0x65, 0x66, 0x61, 0x75, 0x6c, 0x74, 0x5f,
    0x65, 0x76, 0x69, 0x64, 0x65, 0x6e, 0x63, 0x65, 0x5f, 0x69, 0x6e, 0x70,
    0x75, 0x74, 0x3a, 0x30, 0x00, 0x00, 0x00, 0x00, 0x02, 0x00, 0x00, 0x00,
    0x01, 0x00, 0x00, 0x00, 0x07, 0x00, 0x00, 0x00, 0x0a, 0x00, 0x00, 0x00,
    0xc0, 0x00, 0x00, 0x00, 0xa0, 0x00, 0x00, 0x00, 0x84, 0x00, 0x00, 0x00,
    0x70, 0x00, 0x00, 0x00, 0x60, 0x00, 0x00, 0x00, 0x50, 0x00, 0x00, 0x00,
    0x40, 0x00, 0x00, 0x00, 0x2c, 0x00, 0x00, 0x00, 0x18, 0x00, 0x00, 0x00,
    0x04, 0x00, 0x00, 0x00, 0x90, 0xff, 0xff, 0xff, 0x19, 0x00, 0x00, 0x00,
    0x02, 0x00, 0x00, 0x00, 0x00, 0x00, 0x00, 0x19, 0xa0, 0xff, 0xff, 0xff,
    0x02, 0x00, 0x00, 0x00, 0x02, 0x00, 0x00, 0x00, 0x00, 0x00, 0x00, 0x02,
    0xb0, 0xff, 0xff, 0xff, 0x09, 0x00, 0x00, 0x00, 0x04, 0x00, 0x00, 0x00,
    0x00, 0x00, 0x00, 0x09, 0xa4, 0xff, 0xff, 0xff, 0x53, 0x00, 0x00, 0x00,
    0x00, 0x00, 0x00, 0x53, 0xb0, 0xff, 0xff, 0xff, 0x2d, 0x00, 0x00, 0x00,
    0x00, 0x00, 0x00, 0x2d, 0xbc, 0xff, 0xff, 0xff, 0x4d, 0x00, 0x00, 0x00,
    0x00, 0x00, 0x00, 0x4d, 0xe4, 0xff, 0xff, 0xff, 0x11, 0x00, 0x00, 0x00,
    0x02, 0x00, 0x00, 0x00, 0x00, 0x00, 0x00, 0x11, 0xd8, 0xff, 0xff, 0xff,
    0x16, 0x00, 0x00, 0x00, 0x00, 0x00, 0x00, 0x16, 0x0c, 0x00, 0x10, 0x00,
    0x0f, 0x00, 0x00, 0x00, 0x08, 0x00, 0x04, 0x00, 0x0c, 0x00, 0x00, 0x00,
    0x03, 0x00, 0x00, 0x00, 0x03, 0x00, 0x00, 0x00, 0x00, 0x00, 0x00, 0x03,
    0x0c, 0x00, 0x0c, 0x00, 0x0b, 0x00, 0x00, 0x00, 0x00, 0x00, 0x04, 0x00,
    0x0c, 0x00, 0x00, 0x00, 0x46, 0x00, 0x00, 0x00, 0x00, 0x00, 0x00, 0x46,
};
const unsigned int g_cnn_gas_datasheet_model_data_len = 9360;
